{
  "version": "1.0",
  "truncation": {
    "direction": "Right",
    "max_length": 256,
    "strategy": "LongestFirst",
    "stride": 0
  },
  "padding": {
    "strategy": "BatchLongest",
    "direction": "Left",
    "pad_to_multiple_of": null,
    "pad_id": 1,
    "pad_type_id": 0,
    "pad_token": "[PAD]"
  },
  "added_tokens": [
    {
      "id": 0,
      "content": "[UNK]",
      "single_word": false,
      "lstrip": false,
      "rstrip": false,
      "normalized": false,
      "special": true
    },
    {
      "id": 1,
      "content": "[PAD]",
      "single_word": false,
      "lstrip": false,
      "rstrip": false,
      "normalized": false,
      "special": true
    },
    {
      "id": 2,
      "content": "[CLS]",
      "single_word": false,
      "lstrip": false,
      "rstrip": false,
      "normalized": false,
      "special": true
    },
    {
      "id": 3,
      "content": "[SEP]",
      "single_word": false,
      "lstrip": false,
      "rstrip": false,
      "normalized": false,
      "special": true
    },
    {
      "id": 4,
      "content": "[MASK]",
      "single_word": false,
      "lstrip": true,
      "rstrip": false,
      "normalized": true,
      "special": true
    }
  ],
  "normalizer": {
    "type": "Sequence",
    "normalizers": [
      {
        "type": "Replace",
        "pattern": {
          "String": "``"
        },
        "content": "\""
      },
      {
        "type": "Replace",
        "pattern": {
          "String": "''"
        },
        "content": "\""
      },
      {
        "type": "NFKD"
      },
      {
        "type": "StripAccents"
      },
      {
        "type": "Replace",
        "pattern": {
          "Regex": " {2,}"
        },
        "content": " "
      }
    ]
  },
  "pre_tokenizer": {
    "type": "Sequence",
    "pretokenizers": [
      {
        "type": "WhitespaceSplit"
      },
      {
        "type": "Metaspace",
        "replacement": "▁",
        "prepend_scheme": "always",
        "split": true
      }
    ]
  },
  "post_processor": {
    "type": "TemplateProcessing",
    "single": [
      {
        "Sequence": {
          "id": "A",
          "type_id": 0
        }
      },
      {
        "SpecialToken": {
          "id": "[SEP]",
          "type_id": 0
        }
      },
      {
        "SpecialToken": {
          "id": "[CLS]",
          "type_id": 2
        }
      }
    ],
    "pair": [
      {
        "Sequence": {
          "id": "A",
          "type_id": 0
        }
      },
      {
        "SpecialToken": {
          "id": "[SEP]",
          "type_id": 0
        }
      },
      {
        "Sequence": {
          "id": "B",
          "type_id": 1
        }
      },
      {
        "SpecialToken": {
          "id": "[SEP]",
          "type_id": 1
        }
      },
      {
        "SpecialToken": {
          "id": "[CLS]",
          "type_id": 2
        }
      }
    ],
    "special_tokens": {
      "[CLS]": {
        "id": "[CLS]",
        "ids": [
          2
        ],
        "tokens": [
          "[CLS]"
        ]
      },
      "[SEP]": {
        "id": "[SEP]",
        "ids": [
          3
        ],
        "tokens": [
          "[SEP]"
        ]
      }
    }
  },
  "decoder": {
    "type": "Metaspace",
    "replacement": "▁",
    "prepend_scheme": "always",
    "split": true
  },
  "model": {
    "type": "Unigram",
    "unk_id": 0,
    "vocab": [
      [
        "[UNK]",
        0.0
      ],
      [
        "[PAD]",
        0.0
      ],
      [
        "[CLS]",
        0.0
      ],
      [
        "[SEP]",
        0.0
      ],
      [
        "[MASK]",
        0.0
      ],
      [
        "!",
        -8.241740226745605
      ],
      [
        "!'",
        -10.251360893249512
      ],
      [
        "!”",
        -10.62378978729248
      ],
      [
        "\"",
        -5.4618306159973145
      ],
      [
        "#",
        -10.753705024719238
      ],
      [
        "$",
        -12.0405912399292
      ],
      [
        "%",
        -10.63233757019043
      ],
      [
        "%)",
        -9.691756248474121
      ],
      [
        "&",
        -8.582632064819336
      ],
      [
        "&#34;",
        -10.764028549194336
      ],
      [
        "'",
        -5.512368202209473
      ],
      [
        "'(",
        -9.520689010620117
      ],
      [
        "',",
        -9.101415634155273
      ],
      [
        "(",
        -5.337405681610107
      ],
      [
        "(0",
        -9.525884628295898
      ],
      [
        "(1",
        -8.622847557067871
      ],
      [
        "(10",
        -10.335494995117188
      ],
      [
        "(12",
        -10.640193939208984
      ],
      [
        "(15",
        -10.48358154296875
      ],
      [
        "(17",
        -10.594112396240234
      ],
      [
        "(18",
        -10.471661567687988
      ],
      [
        "(19",
        -10.049023628234863
      ],
      [
        "(2",
        -9.019701957702637
      ],
      [
        "(20",
        -9.856030464172363
      ],
      [
        "(23",
        -10.51120376586914
      ],
      [
        "(24",
        -10.371463775634766
      ],
      [
        "(25",
        -10.293620109558105
      ],
      [
        "(3",
        -9.02019214630127
      ],
      [
        "(4",
        -9.43075180053711
      ],
      [
        "(5",
        -9.512742042541504
      ],
      [
        "(6",
        -9.740362167358398
      ],
      [
        "(7",
        -9.93420124053955
      ],
      [
        "(8",
        -10.225580215454102
      ],
      [
        "(9",
        -10.32448673248291
      ],
      [
        "(?)",
        -11.08836555480957
      ],
      [
        ")",
        -5.252416133880615
      ],
      [
        ")'",
        -9.080144882202148
      ],
      [
        "),",
        -7.588731288909912
      ],
      [
        ")’",
        -9.290717124938965
      ],
      [
        "*",
        -10.718230247497559
      ],
      [
        "+",
        -9.227316856384277
      ],
      [
        ",",
        -4.365814685821533
      ],
      [
        "-",
        -6.848663806915283
      ],
      [
        "----------------",
        -10.836519241333008
      ],
      [
        "-1",
        -9.104693412780762
      ],
      [
        "-2",
        -9.353516578674316
      ],
      [
        "-20",
        -10.570895195007324
      ],
      [
        "-3",
        -9.90108585357666
      ],
      [
        "-4",
        -10.324803352355957
      ],
      [
        ".",
        -3.521402359008789
      ],
      [
        "...",
        -7.302450656890869
      ],
      [
        "...\"",
        -9.923118591308594
      ],
      [
        "...'",
        -10.286142349243164
      ],
      [
        "...”",
        -10.447331428527832
      ],
      [
        "/",
        -8.06401252746582
      ],
      [
        "0",
        -8.629563331604004
      ],
      [
        "0%",
        -8.83973217010498
      ],
      [
        "0%)",
        -9.977973937988281
      ],
      [
        "0.0",
        -9.732742309570312
      ],
      [
        "0.00",
        -9.995957374572754
      ],
      [
        "0.1",
        -10.16635799407959
      ],
      [
        "0.1%",
        -10.742626190185547
      ],
      [
        "0.2%",
        -10.654702186584473
      ],
      [
        "0.3",
        -10.205623626708984
      ],
      [
        "0.3%",
        -10.825549125671387
      ],
      [
        "0.4%",
        -10.945699691772461
      ],
      [
        "0.5",
        -10.345685005187988
      ],
      [
        "0.5%",
        -10.80620288848877
      ],
      [
        "0.6",
        -10.835033416748047
      ],
      [
        "0.6%",
        -10.968050003051758
      ],
      [
        "0.7",
        -10.82878589630127
      ],
      [
        "0.7%",
        -11.082565307617188
      ],
      [
        "0.8",
        -10.993008613586426
      ],
      [
        "0.8%",
        -11.121953964233398
      ],
      [
        "00",
        -8.910436630249023
      ],
      [
        "000.0",
        -10.166108131408691
      ],
      [
        "00000",
        -10.932392120361328
      ],
      [
        "01",
        -8.98076343536377
      ],
      [
        "02",
        -9.566071510314941
      ],
      [
        "02-",
        -10.499881744384766
      ],
      [
        "03",
        -9.683893203735352
      ],
      [
        "04",
        -10.017407417297363
      ],
      [
        "05",
        -9.862658500671387
      ],
      [
        "06",
        -9.67742919921875
      ],
      [
        "07",
        -9.579197883605957
      ],
      [
        "08",
        -9.64340877532959
      ],
      [
        "09",
        -9.40566349029541
      ],
      [
        "0:00:00",
        -10.090993881225586
      ],
      [
        "1",
        -7.041733264923096
      ],
      [
        "1%",
        -9.080131530761719
      ],
      [
        "1%)",
        -10.032307624816895
      ],
      [
        "1)",
        -9.889544486999512
      ],
      [
        "1,000",
        -10.999773979187012
      ],
      [
        "1.3%",
        -11.133866310119629
      ],
      [
        "1.4%",
        -11.191038131713867
      ],
      [
        "1.5%",
        -11.103804588317871
      ],
      [
        "1.6",
        -11.181523323059082
      ],
      [
        "1.6%",
        -11.158578872680664
      ],
      [
        "1.7%",
        -11.154369354248047
      ],
      [
        "1.8",
        -11.163169860839844
      ],
      [
        "10",
        -8.195021629333496
      ],
      [
        "100",
        -9.465388298034668
      ],
      [
        "1000",
        -10.384921073913574
      ],
      [
        "11",
        -8.953668594360352
      ],
      [
        "12",
        -9.18587589263916
      ],
      [
        "13",
        -9.244187355041504
      ],
      [
        "14",
        -9.056107521057129
      ],
      [
        "15",
        -9.058869361877441
      ],
      [
        "16",
        -9.170636177062988
      ],
      [
        "17",
        -9.378020286560059
      ],
      [
        "18",
        -9.026649475097656
      ],
      [
        "19",
        -9.024101257324219
      ],
      [
        "1⁄2",
        -11.169684410095215
      ],
      [
        "1⁄4",
        -10.935861587524414
      ],
      [
        "2",
        -7.0371246337890625
      ],
      [
        "2%",
        -8.720529556274414
      ],
      [
        "2)",
        -9.726653099060059
      ],
      [
        "2.0",
        -10.68906021118164
      ],
      [
        "2.3%",
        -11.099798202514648
      ],
      [
        "2.5",
        -10.620206832885742
      ],
      [
        "2.5%",
        -11.110086441040039
      ],
      [
        "2.8%",
        -11.068875312805176
      ],
      [
        "20",
        -8.473155975341797
      ],
      [
        "200",
        -9.136805534362793
      ],
      [
        "2000",
        -10.090330123901367
      ],
      [
        "2011",
        -10.89029598236084
      ],
      [
        "2012",
        -9.964159965515137
      ],
      [
        "2013",
        -9.772710800170898
      ],
      [
        "21",
        -9.223967552185059
      ],
      [
        "22",
        -9.3455810546875
      ],
      [
        "23",
        -9.621026039123535
      ],
      [
        "24",
        -9.365845680236816
      ],
      [
        "25",
        -9.08572006225586
      ],
      [
        "26",
        -9.235904693603516
      ],
      [
        "27",
        -9.298035621643066
      ],
      [
        "28",
        -9.277448654174805
      ],
      [
        "29",
        -9.357649803161621
      ],
      [
        "3",
        -7.436238765716553
      ],
      [
        "3%",
        -8.760931015014648
      ],
      [
        "30",
        -8.306906700134277
      ],
      [
        "300",
        -9.77904224395752
      ],
      [
        "3000",
        -10.285604476928711
      ],
      [
        "31",
        -9.295701026916504
      ],
      [
        "32",
        -9.851167678833008
      ],
      [
        "33",
        -9.65357780456543
      ],
      [
        "34",
        -9.749746322631836
      ],
      [
        "35",
        -9.578760147094727
      ],
      [
        "36",
        -9.656509399414062
      ],
      [
        "37",
        -9.852222442626953
      ],
      [
        "38",
        -9.80273151397705
      ],
      [
        "39",
        -9.828702926635742
      ],
      [
        "3⁄4",
        -11.09531307220459
      ],
      [
        "4",
        -7.599758625030518
      ],
      [
        "4%",
        -8.930554389953613
      ],
      [
        "4%)",
        -10.061959266662598
      ],
      [
        "40",
        -8.808497428894043
      ],
      [
        "400",
        -10.011490821838379
      ],
      [
        "4000",
        -9.89214038848877
      ],
      [
        "41",
        -9.679346084594727
      ],
      [
        "42",
        -9.639741897583008
      ],
      [
        "43",
        -9.483587265014648
      ],
      [
        "44",
        -9.35740852355957
      ],
      [
        "45",
        -9.570894241333008
      ],
      [
        "46",
        -9.539645195007324
      ],
      [
        "47",
        -9.498807907104492
      ],
      [
        "48",
        -9.673667907714844
      ],
      [
        "49",
        -9.547493934631348
      ],
      [
        "5",
        -7.700077056884766
      ],
      [
        "5%",
        -8.639123916625977
      ],
      [
        "5%)",
        -10.382025718688965
      ],
      [
        "5,000",
        -11.143167495727539
      ],
      [
        "50",
        -8.322568893432617
      ],
      [
        "500",
        -8.7918062210083
      ],
      [
        "5000",
        -9.653639793395996
      ],
      [
        "51",
        -9.859607696533203
      ],
      [
        "52",
        -9.8351469039917
      ],
      [
        "53",
        -9.611187934875488
      ],
      [
        "54",
        -9.581846237182617
      ],
      [
        "55",
        -9.583525657653809
      ],
      [
        "56",
        -9.597768783569336
      ],
      [
        "57",
        -9.598883628845215
      ],
      [
        "58",
        -9.695212364196777
      ],
      [
        "59",
        -9.524677276611328
      ],
      [
        "6",
        -8.098970413208008
      ],
      [
        "6%",
        -8.790688514709473
      ],
      [
        "60",
        -8.88487434387207
      ],
      [
        "600",
        -9.49547290802002
      ],
      [
        "6000",
        -10.028261184692383
      ],
      [
        "61",
        -10.146037101745605
      ],
      [
        "62",
        -10.01337718963623
      ],
      [
        "63",
        -9.699111938476562
      ],
      [
        "64",
        -9.814116477966309
      ],
      [
        "65",
        -9.877412796020508
      ],
      [
        "66",
        -9.7020845413208
      ],
      [
        "67",
        -9.849237442016602
      ],
      [
        "68",
        -9.819221496582031
      ],
      [
        "69",
        -9.909004211425781
      ],
      [
        "7",
        -7.800820827484131
      ],
      [
        "7%",
        -9.088473320007324
      ],
      [
        "7%)",
        -10.214388847351074
      ],
      [
        "7.0",
        -10.506924629211426
      ],
      [
        "7.5%",
        -11.149855613708496
      ],
      [
        "70",
        -9.042061805725098
      ],
      [
        "700",
        -9.722312927246094
      ],
      [
        "7000",
        -10.138986587524414
      ],
      [
        "71",
        -10.075660705566406
      ],
      [
        "72",
        -9.885658264160156
      ],
      [
        "73",
        -10.06281566619873
      ],
      [
        "74",
        -9.907000541687012
      ],
      [
        "75",
        -9.64122200012207
      ],
      [
        "76",
        -10.03447437286377
      ],
      [
        "77",
        -9.689362525939941
      ],
      [
        "78",
        -9.979602813720703
      ],
      [
        "79",
        -9.928083419799805
      ],
      [
        "8",
        -8.190491676330566
      ],
      [
        "8%",
        -9.00302791595459
      ],
      [
        "8%)",
        -10.074481964111328
      ],
      [
        "80",
        -8.935263633728027
      ],
      [
        "800",
        -9.566547393798828
      ],
      [
        "8000",
        -10.062664031982422
      ],
      [
        "81",
        -10.229704856872559
      ],
      [
        "82",
        -10.115997314453125
      ],
      [
        "83",
        -10.05626106262207
      ],
      [
        "84",
        -9.890936851501465
      ],
      [
        "85",
        -9.808971405029297
      ],
      [
        "86",
        -10.049851417541504
      ],
      [
        "87",
        -9.804098129272461
      ],
      [
        "88",
        -9.80967903137207
      ],
      [
        "89",
        -9.955910682678223
      ],
      [
        "9",
        -8.149239540100098
      ],
      [
        "9%",
        -9.099611282348633
      ],
      [
        "9%)",
        -10.199484825134277
      ],
      [
        "90",
        -9.508891105651855
      ],
      [
        "900",
        -9.926220893859863
      ],
      [
        "9000",
        -10.236663818359375
      ],
      [
        "91",
        -10.092476844787598
      ],
      [
        "92",
        -10.165711402893066
      ],
      [
        "93",
        -9.996891021728516
      ],
      [
        "94",
        -9.887036323547363
      ],
      [
        "95",
        -9.807074546813965
      ],
      [
        "96",
        -9.857404708862305
      ],
      [
        "97",
        -10.250757217407227
      ],
      [
        "98",
        -10.197026252746582
      ],
      [
        "99",
        -9.600605010986328
      ],
      [
        ":",
        -7.465843200683594
      ],
      [
        "://",
        -10.44821834564209
      ],
      [
        ":00",
        -10.750879287719727
      ],
      [
        ";",
        -9.992045402526855
      ],
      [
        "<",
        -10.300079345703125
      ],
      [
        "=",
        -7.86930513381958
      ],
      [
        "=\"\"",
        -8.522246360778809
      ],
      [
        "=\"\">",
        -9.925985336303711
      ],
      [
        ">",
        -7.715896129608154
      ],
      [
        "?",
        -7.409911632537842
      ],
      [
        "?\"",
        -9.81237506866455
      ],
      [
        "??",
        -10.060644149780273
      ],
      [
        "???",
        -10.173367500305176
      ],
      [
        "????",
        -10.33558177947998
      ],
      [
        "?”",
        -9.856170654296875
      ],
      [
        "A",
        -7.8005690574646
      ],
      [
        "AM",
        -10.624184608459473
      ],
      [
        "AP",
        -10.229089736938477
      ],
      [
        "AR",
        -10.507122039794922
      ],
      [
        "AS",
        -10.812748908996582
      ],
      [
        "AT",
        -10.654563903808594
      ],
      [
        "B",
        -8.286255836486816
      ],
      [
        "BC",
        -10.045260429382324
      ],
      [
        "BO",
        -10.82595157623291
      ],
      [
        "BS",
        -9.78683090209961
      ],
      [
        "C",
        -8.00329875946045
      ],
      [
        "CC",
        -10.03918743133545
      ],
      [
        "CD",
        -10.470413208007812
      ],
      [
        "CI",
        -10.851387023925781
      ],
      [
        "D",
        -8.295395851135254
      ],
      [
        "DB",
        -10.080881118774414
      ],
      [
        "DC",
        -10.89040756225586
      ],
      [
        "DI",
        -10.704062461853027
      ],
      [
        "E",
        -8.098189353942871
      ],
      [
        "ER",
        -10.787113189697266
      ],
      [
        "EU",
        -10.13681411743164
      ],
      [
        "F",
        -8.263136863708496
      ],
      [
        "FC",
        -9.857706069946289
      ],
      [
        "FI",
        -10.865710258483887
      ],
      [
        "FIFA",
        -10.725870132446289
      ],
      [
        "FTA",
        -10.52237319946289
      ],
      [
        "G",
        -8.42440414428711
      ],
      [
        "GB",
        -10.591620445251465
      ],
      [
        "GDP",
        -10.4376802444458
      ],
      [
        "GM",
        -10.967823028564453
      ],
      [
        "H",
        -8.834981918334961
      ],
      [
        "HD",
        -10.0430908203125
      ],
      [
        "I",
        -8.709686279296875
      ],
      [
        "IA",
        -10.5408935546875
      ],
      [
        "IB",
        -10.54610824584961
      ],
      [
        "IC",
        -9.657501220703125
      ],
      [
        "II",
        -11.122819900512695
      ],
      [
        "IM",
        -10.311018943786621
      ],
      [
        "IN",
        -10.595519065856934
      ],
      [
        "IP",
        -10.161733627319336
      ],
      [
        "IS",
        -10.187684059143066
      ],
      [
        "IT",
        -10.327743530273438
      ],
      [
        "J",
        -9.43154239654541
      ],
      [
        "K",
        -8.583727836608887
      ],
      [
        "KB",
        -10.645537376403809
      ],
      [
        "KBS",
        -10.943894386291504
      ],
      [
        "KT",
        -10.833272933959961
      ],
      [
        "L",
        -8.515281677246094
      ],
      [
        "LED",
        -10.134749412536621
      ],
      [
        "LG",
        -10.448416709899902
      ],
      [
        "LPGA",
        -10.628814697265625
      ],
      [
        "LS",
        -10.36493968963623
      ],
      [
        "M",
        -8.161666870117188
      ],
      [
        "MBC",
        -10.700428009033203
      ],
      [
        "MBN",
        -10.977731704711914
      ],
      [
        "MC",
        -10.473578453063965
      ],
      [
        "MOU",
        -11.0003080368042
      ],
      [
        "MS",
        -10.310461044311523
      ],
      [
        "N",
        -8.439777374267578
      ],
      [
        "NA",
        -10.610661506652832
      ],
      [
        "NE",
        -10.403117179870605
      ],
      [
        "NLL",
        -10.355059623718262
      ],
      [
        "NS",
        -10.73696231842041
      ],
      [
        "NTSB",
        -11.003350257873535
      ],
      [
        "New",
        -10.965092658996582
      ],
      [
        "O",
        -8.211030960083008
      ],
      [
        "OC",
        -10.592020034790039
      ],
      [
        "OS",
        -10.08472728729248
      ],
      [
        "OSEN",
        -9.433753967285156
      ],
      [
        "P",
        -8.066618919372559
      ],
      [
        "PC",
        -10.170766830444336
      ],
      [
        "PD",
        -10.80521297454834
      ],
      [
        "PGA",
        -10.798169136047363
      ],
      [
        "PI",
        -10.87869644165039
      ],
      [
        "PM",
        -10.77131175994873
      ],
      [
        "POP",
        -10.909235000610352
      ],
      [
        "PS",
        -10.410014152526855
      ],
      [
        "Q",
        -9.931663513183594
      ],
      [
        "R",
        -8.42887020111084
      ],
      [
        "S",
        -8.098373413085938
      ],
      [
        "SBS",
        -10.573220252990723
      ],
      [
        "SI",
        -10.827807426452637
      ],
      [
        "SK",
        -10.252996444702148
      ],
      [
        "SNS",
        -11.143353462219238
      ],
      [
        "SP",
        -10.83049201965332
      ],
      [
        "SS",
        -10.107352256774902
      ],
      [
        "ST",
        -10.185552597045898
      ],
      [
        "T",
        -8.090538024902344
      ],
      [
        "TI",
        -10.889930725097656
      ],
      [
        "TS",
        -10.617707252502441
      ],
      [
        "TV",
        -8.774336814880371
      ],
      [
        "The",
        -11.085732460021973
      ],
      [
        "U",
        -8.94677448272705
      ],
      [
        "V",
        -8.922694206237793
      ],
      [
        "W",
        -8.932738304138184
      ],
      [
        "X",
        -8.972604751586914
      ],
      [
        "Y",
        -9.479225158691406
      ],
      [
        "Z",
        -10.254295349121094
      ],
      [
        "[",
        -10.185784339904785
      ],
      [
        "]",
        -7.506382942199707
      ],
      [
        "^",
        -12.058769226074219
      ],
      [
        "_",
        -11.580448150634766
      ],
      [
        "`",
        -8.633685111999512
      ],
      [
        "a",
        -8.577486991882324
      ],
      [
        "ab",
        -11.025001525878906
      ],
      [
        "ac",
        -10.296257019042969
      ],
      [
        "ad",
        -10.913766860961914
      ],
      [
        "al",
        -9.691610336303711
      ],
      [
        "all",
        -11.049785614013672
      ],
      [
        "am",
        -10.358174324035645
      ],
      [
        "an",
        -9.095351219177246
      ],
      [
        "ar",
        -9.4612398147583
      ],
      [
        "as",
        -10.0971097946167
      ],
      [
        "at",
        -9.872859001159668
      ],
      [
        "ation",
        -10.794537544250488
      ],
      [
        "ay",
        -10.795681953430176
      ],
      [
        "b",
        -9.036674499511719
      ],
      [
        "bp",
        -10.72469711303711
      ],
      [
        "c",
        -8.588247299194336
      ],
      [
        "ch",
        -10.291927337646484
      ],
      [
        "cm",
        -9.936898231506348
      ],
      [
        "co",
        -9.994211196899414
      ],
      [
        "com",
        -9.664167404174805
      ],
      [
        "ct",
        -10.61800479888916
      ],
      [
        "d",
        -8.788108825683594
      ],
      [
        "e",
        -7.621605396270752
      ],
      [
        "ed",
        -9.916316986083984
      ],
      [
        "el",
        -10.414837837219238
      ],
      [
        "en",
        -9.939187049865723
      ],
      [
        "ent",
        -10.303603172302246
      ],
      [
        "er",
        -9.260919570922852
      ],
      [
        "es",
        -10.03829574584961
      ],
      [
        "est",
        -11.063490867614746
      ],
      [
        "et",
        -10.310574531555176
      ],
      [
        "f",
        -9.104193687438965
      ],
      [
        "g",
        -8.787849426269531
      ],
      [
        "go",
        -10.673599243164062
      ],
      [
        "h",
        -9.133293151855469
      ],
      [
        "ha",
        -10.548868179321289
      ],
      [
        "ho",
        -10.598031997680664
      ],
      [
        "http",
        -10.425220489501953
      ],
      [
        "i",
        -8.396402359008789
      ],
      [
        "ic",
        -9.675015449523926
      ],
      [
        "id",
        -10.731077194213867
      ],
      [
        "il",
        -10.332345962524414
      ],
      [
        "in",
        -9.177398681640625
      ],
      [
        "ing",
        -9.859417915344238
      ],
      [
        "ir",
        -10.81446647644043
      ],
      [
        "is",
        -9.935372352600098
      ],
      [
        "it",
        -9.782112121582031
      ],
      [
        "j",
        -10.756843566894531
      ],
      [
        "k",
        -9.0426664352417
      ],
      [
        "kW",
        -10.853668212890625
      ],
      [
        "kg",
        -9.53816032409668
      ],
      [
        "km",
        -9.194417953491211
      ],
      [
        "kr",
        -9.685081481933594
      ],
      [
        "l",
        -8.692543029785156
      ],
      [
        "le",
        -10.021790504455566
      ],
      [
        "lo",
        -10.52375316619873
      ],
      [
        "m",
        -7.673852920532227
      ],
      [
        "mm",
        -9.620349884033203
      ],
      [
        "n",
        -8.836956977844238
      ],
      [
        "net",
        -11.17728328704834
      ],
      [
        "o",
        -8.060870170593262
      ],
      [
        "ol",
        -10.485698699951172
      ],
      [
        "on",
        -9.312439918518066
      ],
      [
        "or",
        -9.149178504943848
      ],
      [
        "ow",
        -10.838726043701172
      ],
      [
        "p",
        -8.377361297607422
      ],
      [
        "q",
        -11.537629127502441
      ],
      [
        "quot",
        -10.543785095214844
      ],
      [
        "r",
        -9.651904106140137
      ],
      [
        "ra",
        -10.556253433227539
      ],
      [
        "re",
        -9.49521255493164
      ],
      [
        "ri",
        -10.577963829040527
      ],
      [
        "ro",
        -10.050512313842773
      ],
      [
        "s",
        -8.010440826416016
      ],
      [
        "st",
        -10.227832794189453
      ],
      [
        "t",
        -8.24327564239502
      ],
      [
        "ter",
        -10.884965896606445
      ],
      [
        "th",
        -10.265291213989258
      ],
      [
        "tion",
        -11.18146800994873
      ],
      [
        "u",
        -9.173978805541992
      ],
      [
        "ul",
        -10.734272003173828
      ],
      [
        "um",
        -10.782076835632324
      ],
      [
        "un",
        -10.355448722839355
      ],
      [
        "ur",
        -10.415913581848145
      ],
      [
        "us",
        -10.504493713378906
      ],
      [
        "ut",
        -10.749873161315918
      ],
      [
        "v",
        -9.42155933380127
      ],
      [
        "ver",
        -10.909271240234375
      ],
      [
        "w",
        -9.42995548248291
      ],
      [
        "www",
        -9.473295211791992
      ],
      [
        "x",
        -9.842235565185547
      ],
      [
        "y",
        -8.745808601379395
      ],
      [
        "z",
        -10.404260635375977
      ],
      [
        "{",
        -10.694704055786133
      ],
      [
        "|",
        -11.400745391845703
      ],
      [
        "}",
        -10.606270790100098
      ],
      [
        "~",
        -7.920912265777588
      ],
      [
        "~1",
        -9.900023460388184
      ],
      [
        "~20",
        -10.375072479248047
      ],
      [
        "~3",
        -10.706940650939941
      ],
      [
        "~5",
        -10.454072952270508
      ],
      [
        "~6",
        -10.726550102233887
      ],
      [
        "~8",
        -10.813616752624512
      ],
      [
        "¡",
        -17.25395393371582
      ],
      [
        "¤",
        -12.419297218322754
      ],
      [
        "§",
        -17.25235366821289
      ],
      [
        "­",
        -11.861766815185547
      ],
      [
        "®",
        -11.718600273132324
      ],
      [
        "°",
        -10.07101821899414
      ],
      [
        "±",
        -10.790151596069336
      ],
      [
        "¶",
        -17.25315284729004
      ],
      [
        "·",
        -6.201866149902344
      ],
      [
        "¿",
        -17.254154205322266
      ],
      [
        "Æ",
        -11.445174217224121
      ],
      [
        "×",
        -11.566458702087402
      ],
      [
        "Ø",
        -12.355062484741211
      ],
      [
        "ß",
        -12.04805850982666
      ],
      [
        "æ",
        -17.252553939819336
      ],
      [
        "÷",
        -12.034732818603516
      ],
      [
        "ø",
        -17.253353118896484
      ],
      [
        "́",
        -17.254352569580078
      ],
      [
        "̧",
        -10.457500457763672
      ],
      [
        "μ",
        -12.336464881896973
      ],
      [
        "ᄀ",
        -12.113268852233887
      ],
      [
        "ᄋ",
        -12.22640323638916
      ],
      [
        "ᄏ",
        -12.044513702392578
      ],
      [
        "ᄒ",
        -12.655610084533691
      ],
      [
        "ᅵ",
        -12.113690376281738
      ],
      [
        "ᆞ",
        -8.044412612915039
      ],
      [
        "―",
        -11.613368034362793
      ],
      [
        "‘",
        -9.57451343536377
      ],
      [
        "’",
        -6.034748554229736
      ],
      [
        "’(",
        -9.652353286743164
      ],
      [
        "’,",
        -9.645369529724121
      ],
      [
        "“",
        -9.81615161895752
      ],
      [
        "”",
        -5.978498935699463
      ],
      [
        "”,",
        -9.58655834197998
      ],
      [
        "′",
        -10.174786567687988
      ],
      [
        "※",
        -11.475201606750488
      ],
      [
        "⁄",
        -17.254653930664062
      ],
      [
        "↑",
        -10.289494514465332
      ],
      [
        "→",
        -10.095463752746582
      ],
      [
        "↓",
        -10.936090469360352
      ],
      [
        "↓]",
        -11.069214820861816
      ],
      [
        "∼",
        -8.876727104187012
      ],
      [
        "─",
        -11.102941513061523
      ],
      [
        "───",
        -10.659841537475586
      ],
      [
        "│",
        -11.986754417419434
      ],
      [
        "├",
        -12.887752532958984
      ],
      [
        "┼",
        -11.619769096374512
      ],
      [
        "▁",
        -3.580657958984375
      ],
      [
        "▁\"",
        -5.519287109375
      ],
      [
        "▁&",
        -10.314934730529785
      ],
      [
        "▁'",
        -5.60296630859375
      ],
      [
        "▁'2013",
        -10.31390380859375
      ],
      [
        "▁(",
        -8.162339210510254
      ],
      [
        "▁*",
        -9.770339012145996
      ],
      [
        "▁-",
        -8.251699447631836
      ],
      [
        "▁/",
        -8.806933403015137
      ],
      [
        "▁0",
        -8.753998756408691
      ],
      [
        "▁0.2",
        -10.58194637298584
      ],
      [
        "▁00:0",
        -10.052327156066895
      ],
      [
        "▁1",
        -5.903815746307373
      ],
      [
        "▁1%",
        -10.251893997192383
      ],
      [
        "▁1,2",
        -10.991230964660645
      ],
      [
        "▁1.5",
        -10.914734840393066
      ],
      [
        "▁10",
        -6.944262504577637
      ],
      [
        "▁10%",
        -9.85379409790039
      ],
      [
        "▁100",
        -8.334686279296875
      ],
      [
        "▁100%",
        -10.039399147033691
      ],
      [
        "▁1000",
        -9.539543151855469
      ],
      [
        "▁11",
        -7.576772689819336
      ],
      [
        "▁12",
        -7.665256023406982
      ],
      [
        "▁120",
        -10.474462509155273
      ],
      [
        "▁13",
        -8.298019409179688
      ],
      [
        "▁14",
        -8.208551406860352
      ],
      [
        "▁15",
        -7.89258337020874
      ],
      [
        "▁150",
        -10.052041053771973
      ],
      [
        "▁16",
        -8.112327575683594
      ],
      [
        "▁17",
        -8.183419227600098
      ],
      [
        "▁18",
        -8.160833358764648
      ],
      [
        "▁19",
        -7.6990966796875
      ],
      [
        "▁1990",
        -11.008338928222656
      ],
      [
        "▁1997",
        -11.028944969177246
      ],
      [
        "▁1998",
        -11.04362678527832
      ],
      [
        "▁1~2",
        -10.859352111816406
      ],
      [
        "▁2",
        -6.086259841918945
      ],
      [
        "▁20",
        -7.6818742752075195
      ],
      [
        "▁20%",
        -10.013103485107422
      ],
      [
        "▁200",
        -9.351317405700684
      ],
      [
        "▁2000",
        -9.476573944091797
      ],
      [
        "▁2001",
        -10.765554428100586
      ],
      [
        "▁2002",
        -10.449707984924316
      ],
      [
        "▁2003",
        -10.512235641479492
      ],
      [
        "▁2004",
        -10.333650588989258
      ],
      [
        "▁2005",
        -10.033293724060059
      ],
      [
        "▁2006",
        -9.86678695678711
      ],
      [
        "▁2007",
        -9.251646995544434
      ],
      [
        "▁2008",
        -9.180622100830078
      ],
      [
        "▁2009",
        -9.04626178741455
      ],
      [
        "▁2010",
        -8.796804428100586
      ],
      [
        "▁2011",
        -8.276241302490234
      ],
      [
        "▁2012",
        -8.781292915344238
      ],
      [
        "▁2013",
        -8.12883472442627
      ],
      [
        "▁2013-0",
        -10.43138599395752
      ],
      [
        "▁2013.0",
        -8.745356559753418
      ],
      [
        "▁2013.07.1",
        -10.44196891784668
      ],
      [
        "▁2013.07.2",
        -10.439664840698242
      ],
      [
        "▁2014",
        -9.932307243347168
      ],
      [
        "▁2015",
        -10.126805305480957
      ],
      [
        "▁2016",
        -10.85300064086914
      ],
      [
        "▁2017",
        -10.929688453674316
      ],
      [
        "▁21",
        -8.578874588012695
      ],
      [
        "▁22",
        -8.567553520202637
      ],
      [
        "▁23",
        -8.562418937683105
      ],
      [
        "▁24",
        -8.475149154663086
      ],
      [
        "▁25",
        -8.361313819885254
      ],
      [
        "▁26",
        -8.80389404296875
      ],
      [
        "▁27",
        -8.853715896606445
      ],
      [
        "▁28",
        -8.650303840637207
      ],
      [
        "▁29",
        -8.692861557006836
      ],
      [
        "▁2~3",
        -10.557112693786621
      ],
      [
        "▁3",
        -6.2819037437438965
      ],
      [
        "▁3.0",
        -11.082432746887207
      ],
      [
        "▁3.3",
        -11.034092903137207
      ],
      [
        "▁30",
        -7.920926094055176
      ],
      [
        "▁30%",
        -9.97386360168457
      ],
      [
        "▁300",
        -9.524040222167969
      ],
      [
        "▁3000",
        -10.344612121582031
      ],
      [
        "▁31",
        -8.864781379699707
      ],
      [
        "▁32",
        -10.010337829589844
      ],
      [
        "▁33",
        -10.105636596679688
      ],
      [
        "▁34",
        -10.030206680297852
      ],
      [
        "▁35",
        -9.868709564208984
      ],
      [
        "▁36",
        -9.97712516784668
      ],
      [
        "▁37",
        -10.363707542419434
      ],
      [
        "▁38",
        -10.238964080810547
      ],
      [
        "▁39",
        -10.352479934692383
      ],
      [
        "▁4",
        -6.526268005371094
      ],
      [
        "▁40",
        -8.954532623291016
      ],
      [
        "▁40%",
        -10.497902870178223
      ],
      [
        "▁400",
        -10.199332237243652
      ],
      [
        "▁45",
        -9.99393081665039
      ],
      [
        "▁48",
        -10.368511199951172
      ],
      [
        "▁5",
        -6.705918788909912
      ],
      [
        "▁50",
        -8.788570404052734
      ],
      [
        "▁50%",
        -9.99045181274414
      ],
      [
        "▁500",
        -9.436054229736328
      ],
      [
        "▁5000",
        -10.288097381591797
      ],
      [
        "▁55",
        -10.218561172485352
      ],
      [
        "▁6",
        -6.943313121795654
      ],
      [
        "▁60",
        -9.242011070251465
      ],
      [
        "▁60%",
        -10.608803749084473
      ],
      [
        "▁65",
        -10.411142349243164
      ],
      [
        "▁7",
        -7.010408878326416
      ],
      [
        "▁70",
        -9.796582221984863
      ],
      [
        "▁70%",
        -10.397150039672852
      ],
      [
        "▁8",
        -7.127098083496094
      ],
      [
        "▁80",
        -9.98078727722168
      ],
      [
        "▁80%",
        -10.775569915771484
      ],
      [
        "▁9",
        -7.239230632781982
      ],
      [
        "▁90",
        -10.157000541687012
      ],
      [
        "▁:",
        -9.030024528503418
      ],
      [
        "▁<",
        -8.860207557678223
      ],
      [
        "▁=",
        -9.673166275024414
      ],
      [
        "▁>",
        -9.844215393066406
      ],
      [
        "▁?",
        -10.359908103942871
      ],
      [
        "▁??",
        -10.483757972717285
      ],
      [
        "▁A",
        -7.959777355194092
      ],
      [
        "▁APP",
        -11.054924964904785
      ],
      [
        "▁B",
        -8.655186653137207
      ],
      [
        "▁C",
        -8.534255027770996
      ],
      [
        "▁CCTV",
        -10.751443862915039
      ],
      [
        "▁CEO",
        -10.485719680786133
      ],
      [
        "▁CES",
        -11.14220142364502
      ],
      [
        "▁CGV",
        -11.171160697937012
      ],
      [
        "▁CJ",
        -9.223379135131836
      ],
      [
        "▁D",
        -9.028902053833008
      ],
      [
        "▁E",
        -9.21774959564209
      ],
      [
        "▁ELS",
        -10.656744003295898
      ],
      [
        "▁ETF",
        -11.02170181274414
      ],
      [
        "▁F",
        -9.414070129394531
      ],
      [
        "▁FA",
        -10.551239967346191
      ],
      [
        "▁G",
        -9.334444046020508
      ],
      [
        "▁GS",
        -10.196333885192871
      ],
      [
        "▁H",
        -9.383755683898926
      ],
      [
        "▁HOT",
        -11.030789375305176
      ],
      [
        "▁Home",
        -11.105714797973633
      ],
      [
        "▁I",
        -9.804337501525879
      ],
      [
        "▁IT",
        -9.477888107299805
      ],
      [
        "▁J",
        -9.881800651550293
      ],
      [
        "▁JTBC",
        -11.020569801330566
      ],
      [
        "▁K",
        -8.597744941711426
      ],
      [
        "▁KB",
        -9.831326484680176
      ],
      [
        "▁KBO",
        -10.816984176635742
      ],
      [
        "▁KBS",
        -8.892062187194824
      ],
      [
        "▁KDB",
        -10.769774436950684
      ],
      [
        "▁KIA",
        -10.150249481201172
      ],
      [
        "▁KT",
        -9.068009376525879
      ],
      [
        "▁L",
        -9.429680824279785
      ],
      [
        "▁LA",
        -10.222997665405273
      ],
      [
        "▁LG",
        -8.413504600524902
      ],
      [
        "▁LIG",
        -11.039098739624023
      ],
      [
        "▁LTE",
        -10.07677173614502
      ],
      [
        "▁M",
        -8.902970314025879
      ],
      [
        "▁MBC",
        -8.663799285888672
      ],
      [
        "▁MC",
        -9.522621154785156
      ],
      [
        "▁Mnet",
        -10.956954956054688
      ],
      [
        "▁N",
        -9.545937538146973
      ],
      [
        "▁NC",
        -9.923544883728027
      ],
      [
        "▁NH",
        -10.968588829040527
      ],
      [
        "▁NHN",
        -10.843666076660156
      ],
      [
        "▁NLL",
        -9.841645240783691
      ],
      [
        "▁O",
        -9.707602500915527
      ],
      [
        "▁P",
        -9.216636657714844
      ],
      [
        "▁PC",
        -9.848970413208008
      ],
      [
        "▁PD",
        -9.84641170501709
      ],
      [
        "▁Q",
        -10.49969482421875
      ],
      [
        "▁QPR",
        -10.560401916503906
      ],
      [
        "▁R",
        -9.575905799865723
      ],
      [
        "▁S",
        -8.629013061523438
      ],
      [
        "▁SBS",
        -8.784292221069336
      ],
      [
        "▁SK",
        -8.55816650390625
      ],
      [
        "▁SM",
        -10.470965385437012
      ],
      [
        "▁SNS",
        -9.960307121276855
      ],
      [
        "▁STX",
        -10.473963737487793
      ],
      [
        "▁T",
        -9.358515739440918
      ],
      [
        "▁TV",
        -9.09332275390625
      ],
      [
        "▁U",
        -9.486412048339844
      ],
      [
        "▁US",
        -10.55270767211914
      ],
      [
        "▁V",
        -9.957027435302734
      ],
      [
        "▁VIP",
        -11.157279968261719
      ],
      [
        "▁W",
        -9.729939460754395
      ],
      [
        "▁XML",
        -9.660584449768066
      ],
      [
        "▁YG",
        -10.946852684020996
      ],
      [
        "▁[",
        -7.52352237701416
      ],
      [
        "▁`",
        -8.29946517944336
      ],
      [
        "▁and",
        -11.03941535949707
      ],
      [
        "▁c",
        -9.887041091918945
      ],
      [
        "▁for",
        -11.145097732543945
      ],
      [
        "▁of",
        -10.492892265319824
      ],
      [
        "▁the",
        -10.386141777038574
      ],
      [
        "▁to",
        -10.979681015014648
      ],
      [
        "▁tvN",
        -10.335895538330078
      ],
      [
        "▁|",
        -9.085458755493164
      ],
      [
        "▁‘",
        -6.020756721496582
      ],
      [
        "▁‘2013",
        -10.453801155090332
      ],
      [
        "▁“",
        -5.932886600494385
      ],
      [
        "▁“‘",
        -10.635793685913086
      ],
      [
        "▁│",
        -10.53316879272461
      ],
      [
        "▁■",
        -10.376977920532227
      ],
      [
        "▁▦",
        -10.585299491882324
      ],
      [
        "▁▲",
        -7.309968948364258
      ],
      [
        "▁△",
        -8.683666229248047
      ],
      [
        "▁▷",
        -10.076748847961426
      ],
      [
        "▁◀",
        -10.497733116149902
      ],
      [
        "▁◆",
        -9.834212303161621
      ],
      [
        "▁◇",
        -8.90020751953125
      ],
      [
        "▁【",
        -9.842398643493652
      ],
      [
        "▁中",
        -10.496964454650879
      ],
      [
        "▁美",
        -10.085382461547852
      ],
      [
        "▁가격",
        -8.631230354309082
      ],
      [
        "▁가격은",
        -10.362384796142578
      ],
      [
        "▁가격이",
        -10.196110725402832
      ],
      [
        "▁가계",
        -10.538863182067871
      ],
      [
        "▁가계부채",
        -11.069477081298828
      ],
      [
        "▁가구",
        -10.157130241394043
      ],
      [
        "▁가까운",
        -10.255216598510742
      ],
      [
        "▁가까이",
        -10.100029945373535
      ],
      [
        "▁가는",
        -10.005192756652832
      ],
      [
        "▁가능",
        -9.102724075317383
      ],
      [
        "▁가능성",
        -9.618586540222168
      ],
      [
        "▁가능성도",
        -10.271878242492676
      ],
      [
        "▁가능성을",
        -10.04965591430664
      ],
      [
        "▁가능성이",
        -8.863158226013184
      ],
      [
        "▁가능하다",
        -9.470161437988281
      ],
      [
        "▁가능한",
        -9.6537446975708
      ],
      [
        "▁가동",
        -9.711502075195312
      ],
      [
        "▁가득",
        -10.315438270568848
      ],
      [
        "▁가량",
        -9.809013366699219
      ],
      [
        "▁가려",
        -10.849541664123535
      ],
      [
        "▁가로",
        -10.429327964782715
      ],
      [
        "▁가르",
        -10.481193542480469
      ],
      [
        "▁가리",
        -10.506645202636719
      ],
      [
        "▁가맹점",
        -10.423351287841797
      ],
      [
        "▁가방",
        -10.842905044555664
      ],
      [
        "▁가수",
        -9.05066967010498
      ],
      [
        "▁가스",
        -10.275761604309082
      ],
      [
        "▁가슴",
        -9.59598445892334
      ],
      [
        "▁가시",
        -10.536086082458496
      ],
      [
        "▁가운데",
        -7.991866588592529
      ],
      [
        "▁가입",
        -9.325934410095215
      ],
      [
        "▁가입자",
        -10.085799217224121
      ],
      [
        "▁가장",
        -7.741775035858154
      ],
      [
        "▁가전",
        -10.776618003845215
      ],
      [
        "▁가정",
        -9.614277839660645
      ],
      [
        "▁가져",
        -9.690923690795898
      ],
      [
        "▁가졌다",
        -10.309975624084473
      ],
      [
        "▁가족",
        -8.899115562438965
      ],
      [
        "▁가족들",
        -10.596904754638672
      ],
      [
        "▁가지",
        -9.337291717529297
      ],
      [
        "▁가지고",
        -9.677220344543457
      ],
      [
        "▁가진",
        -9.370298385620117
      ],
      [
        "▁가짜",
        -11.081082344055176
      ],
      [
        "▁가치",
        -9.699928283691406
      ],
      [
        "▁가치를",
        -10.57611083984375
      ],
      [
        "▁각",
        -8.260406494140625
      ],
      [
        "▁각각",
        -8.351632118225098
      ],
      [
        "▁각자",
        -10.587608337402344
      ],
      [
        "▁각종",
        -9.103343963623047
      ],
      [
        "▁간",
        -7.953311443328857
      ],
      [
        "▁간담회",
        -10.303120613098145
      ],
      [
        "▁간부",
        -10.41468334197998
      ],
      [
        "▁간사",
        -9.949381828308105
      ],
      [
        "▁갈",
        -9.150118827819824
      ],
      [
        "▁갈등",
        -9.559637069702148
      ],
      [
        "▁갈수록",
        -10.844734191894531
      ],
      [
        "▁감",
        -8.440858840942383
      ],
      [
        "▁감각",
        -10.726837158203125
      ],
      [
        "▁감독",
        -8.63640022277832
      ],
      [
        "▁감독님",
        -11.101563453674316
      ],
      [
        "▁감독은",
        -8.942299842834473
      ],
      [
        "▁감독의",
        -9.90938949584961
      ],
      [
        "▁감독이",
        -9.551409721374512
      ],
      [
        "▁감동",
        -10.216816902160645
      ],
      [
        "▁감면",
        -10.222922325134277
      ],
      [
        "▁감사",
        -8.86759090423584
      ],
      [
        "▁감사원",
        -9.938793182373047
      ],
      [
        "▁감성",
        -10.542844772338867
      ],
      [
        "▁감소",
        -9.072957038879395
      ],
      [
        "▁감소한",
        -10.39455795288086
      ],
      [
        "▁감소했다",
        -10.17572021484375
      ],
      [
        "▁감시",
        -10.28310489654541
      ],
      [
        "▁감안",
        -10.120271682739258
      ],
      [
        "▁감안하면",
        -10.688478469848633
      ],
      [
        "▁감염",
        -10.658086776733398
      ],
      [
        "▁감정",
        -9.894373893737793
      ],
      [
        "▁감추지",
        -11.167570114135742
      ],
      [
        "▁감축",
        -11.032487869262695
      ],
      [
        "▁갑자기",
        -10.252461433410645
      ],
      [
        "▁강",
        -7.451225280761719
      ],
      [
        "▁강남",
        -9.914897918701172
      ],
      [
        "▁강남구",
        -10.383323669433594
      ],
      [
        "▁강력",
        -10.160215377807617
      ],
      [
        "▁강력한",
        -10.00698471069336
      ],
      [
        "▁강렬한",
        -11.037528038024902
      ],
      [
        "▁강릉",
        -10.94367504119873
      ],
      [
        "▁강세",
        -9.869105339050293
      ],
      [
        "▁강원",
        -9.948040008544922
      ],
      [
        "▁강원도",
        -10.031745910644531
      ],
      [
        "▁강제",
        -10.102962493896484
      ],
      [
        "▁강조",
        -9.363844871520996
      ],
      [
        "▁강조했다",
        -8.611300468444824
      ],
      [
        "▁강하게",
        -10.454198837280273
      ],
      [
        "▁강한",
        -9.641531944274902
      ],
      [
        "▁강행",
        -10.74677562713623
      ],
      [
        "▁강호동",
        -10.80555248260498
      ],
      [
        "▁강화",
        -8.295526504516602
      ],
      [
        "▁갖",
        -9.496370315551758
      ],
      [
        "▁갖고",
        -8.968255996704102
      ],
      [
        "▁갖추",
        -10.274714469909668
      ],
      [
        "▁갖춘",
        -10.152602195739746
      ],
      [
        "▁갖춰",
        -10.7906494140625
      ],
      [
        "▁같",
        -9.809585571289062
      ],
      [
        "▁같다",
        -8.729373931884766
      ],
      [
        "▁같아",
        -10.185470581054688
      ],
      [
        "▁같은",
        -7.660219669342041
      ],
      [
        "▁같이",
        -9.41386890411377
      ],
      [
        "▁개",
        -8.529085159301758
      ],
      [
        "▁개그맨",
        -10.43814754486084
      ],
      [
        "▁개념",
        -10.647671699523926
      ],
      [
        "▁개막",
        -9.912406921386719
      ],
      [
        "▁개발",
        -8.372564315795898
      ],
      [
        "▁개방",
        -10.625158309936523
      ],
      [
        "▁개별",
        -10.298794746398926
      ],
      [
        "▁개봉",
        -9.352560997009277
      ],
      [
        "▁개선",
        -8.391946792602539
      ],
      [
        "▁개설",
        -10.319561004638672
      ],
      [
        "▁개성",
        -10.757436752319336
      ],
      [
        "▁개성공단",
        -9.133896827697754
      ],
      [
        "▁개인",
        -8.559807777404785
      ],
      [
        "▁개인정보",
        -10.812474250793457
      ],
      [
        "▁개입",
        -9.917091369628906
      ],
      [
        "▁개장",
        -10.576444625854492
      ],
      [
        "▁개정",
        -9.72929859161377
      ],
      [
        "▁개정안",
        -9.987781524658203
      ],
      [
        "▁개척",
        -11.113497734069824
      ],
      [
        "▁개최",
        -8.846324920654297
      ],
      [
        "▁개최한다",
        -10.904544830322266
      ],
      [
        "▁개통",
        -10.850615501403809
      ],
      [
        "▁개편",
        -9.88499641418457
      ],
      [
        "▁개편안",
        -10.914591789245605
      ],
      [
        "▁개혁",
        -9.73071575164795
      ],
      [
        "▁객관적",
        -11.179766654968262
      ],
      [
        "▁갤럭시",
        -10.076827049255371
      ],
      [
        "▁거",
        -7.889593124389648
      ],
      [
        "▁거두",
        -10.312541007995605
      ],
      [
        "▁거둔",
        -10.807204246520996
      ],
      [
        "▁거뒀다",
        -10.301462173461914
      ],
      [
        "▁거듭",
        -9.764989852905273
      ],
      [
        "▁거래",
        -8.674407958984375
      ],
      [
        "▁거래되고",
        -10.809340476989746
      ],
      [
        "▁거래량",
        -10.862567901611328
      ],
      [
        "▁거론",
        -9.987906455993652
      ],
      [
        "▁거리",
        -9.864908218383789
      ],
      [
        "▁거부",
        -9.589767456054688
      ],
      [
        "▁거의",
        -9.77721118927002
      ],
      [
        "▁거절",
        -10.89558219909668
      ],
      [
        "▁거주",
        -10.207236289978027
      ],
      [
        "▁거짓말",
        -10.948132514953613
      ],
      [
        "▁거쳐",
        -9.308091163635254
      ],
      [
        "▁거치",
        -10.725693702697754
      ],
      [
        "▁거친",
        -10.892603874206543
      ],
      [
        "▁걱정",
        -9.6712646484375
      ],
      [
        "▁건",
        -8.146355628967285
      ],
      [
        "▁건강",
        -9.028497695922852
      ],
      [
        "▁건립",
        -10.398195266723633
      ],
      [
        "▁건물",
        -9.609440803527832
      ],
      [
        "▁건설",
        -8.95687198638916
      ],
      [
        "▁건설사",
        -10.697539329528809
      ],
      [
        "▁건축",
        -10.024417877197266
      ],
      [
        "▁걷",
        -10.225897789001465
      ],
      [
        "▁걸",
        -8.504254341125488
      ],
      [
        "▁걸그룹",
        -10.189316749572754
      ],
      [
        "▁걸린",
        -10.83497142791748
      ],
      [
        "▁걸스데이",
        -11.073785781860352
      ],
      [
        "▁걸어",
        -10.412814140319824
      ],
      [
        "▁걸쳐",
        -9.607588768005371
      ],
      [
        "▁검",
        -9.634954452514648
      ],
      [
        "▁검거",
        -10.40394401550293
      ],
      [
        "▁검사",
        -9.529647827148438
      ],
      [
        "▁검색",
        -9.475081443786621
      ],
      [
        "▁검증",
        -9.662957191467285
      ],
      [
        "▁검찰",
        -8.871854782104492
      ],
      [
        "▁검찰에",
        -10.341349601745605
      ],
      [
        "▁검찰은",
        -9.413979530334473
      ],
      [
        "▁검토",
        -8.933220863342285
      ],
      [
        "▁겁니다",
        -10.869604110717773
      ],
      [
        "▁것",
        -6.679049491882324
      ],
      [
        "▁것과",
        -9.840829849243164
      ],
      [
        "▁것도",
        -9.049156188964844
      ],
      [
        "▁것에",
        -9.811958312988281
      ],
      [
        "▁것으로",
        -6.56749963760376
      ],
      [
        "▁것은",
        -7.739737033843994
      ],
      [
        "▁것을",
        -8.133728981018066
      ],
      [
        "▁것이",
        -7.699967384338379
      ],
      [
        "▁것이다",
        -7.8030877113342285
      ],
      [
        "▁것이라고",
        -9.240882873535156
      ],
      [
        "▁것이라는",
        -9.311481475830078
      ],
      [
        "▁것이란",
        -10.339588165283203
      ],
      [
        "▁것인가",
        -11.027957916259766
      ],
      [
        "▁것인지",
        -10.435062408447266
      ],
      [
        "▁것입니다",
        -10.517970085144043
      ],
      [
        "▁것처럼",
        -10.065987586975098
      ],
      [
        "▁게",
        -8.16611099243164
      ],
      [
        "▁게다가",
        -10.769864082336426
      ],
      [
        "▁게스트",
        -10.574581146240234
      ],
      [
        "▁게시물",
        -11.140544891357422
      ],
      [
        "▁게시판에",
        -10.753920555114746
      ],
      [
        "▁게임",
        -8.646954536437988
      ],
      [
        "▁게재",
        -10.153014183044434
      ],
      [
        "▁게재했다",
        -10.378555297851562
      ],
      [
        "▁겨냥",
        -10.709293365478516
      ],
      [
        "▁겨울",
        -9.587176322937012
      ],
      [
        "▁격",
        -9.76384449005127
      ],
      [
        "▁격려",
        -10.671700477600098
      ],
      [
        "▁격차",
        -10.838361740112305
      ],
      [
        "▁겪",
        -9.49100399017334
      ],
      [
        "▁겪고",
        -10.493785858154297
      ],
      [
        "▁견",
        -9.267607688903809
      ],
      [
        "▁결",
        -8.778671264648438
      ],
      [
        "▁결과",
        -8.085702896118164
      ],
      [
        "▁결과를",
        -9.676599502563477
      ],
      [
        "▁결국",
        -8.8510160446167
      ],
      [
        "▁결론",
        -10.143628120422363
      ],
      [
        "▁결별",
        -10.803537368774414
      ],
      [
        "▁결승",
        -9.629561424255371
      ],
      [
        "▁결심",
        -10.69914722442627
      ],
      [
        "▁결정",
        -8.263908386230469
      ],
      [
        "▁결정했다",
        -10.252542495727539
      ],
      [
        "▁결제",
        -10.283167839050293
      ],
      [
        "▁결코",
        -10.846026420593262
      ],
      [
        "▁결합",
        -10.648599624633789
      ],
      [
        "▁결혼",
        -8.819194793701172
      ],
      [
        "▁결혼식",
        -9.740745544433594
      ],
      [
        "▁겸",
        -9.707758903503418
      ],
      [
        "▁경",
        -7.883053779602051
      ],
      [
        "▁경계",
        -10.425358772277832
      ],
      [
        "▁경고",
        -9.926172256469727
      ],
      [
        "▁경기",
        -7.767204284667969
      ],
      [
        "▁경기가",
        -10.064181327819824
      ],
      [
        "▁경기도",
        -9.122468948364258
      ],
      [
        "▁경기를",
        -9.589245796203613
      ],
      [
        "▁경기에서",
        -9.683723449707031
      ],
      [
        "▁경기침체",
        -11.168049812316895
      ],
      [
        "▁경남",
        -9.320711135864258
      ],
      [
        "▁경력",
        -10.477923393249512
      ],
      [
        "▁경매",
        -10.487502098083496
      ],
      [
        "▁경북",
        -9.89461898803711
      ],
      [
        "▁경비",
        -10.59080696105957
      ],
      [
        "▁경영",
        -8.778548240661621
      ],
      [
        "▁경우",
        -7.632826805114746
      ],
      [
        "▁경우가",
        -10.188467979431152
      ],
      [
        "▁경쟁",
        -8.77344036102295
      ],
      [
        "▁경쟁력",
        -9.570341110229492
      ],
      [
        "▁경제",
        -7.980991363525391
      ],
      [
        "▁경제성장률",
        -11.10817813873291
      ],
      [
        "▁경제적",
        -10.610349655151367
      ],
      [
        "▁경찰",
        -8.518912315368652
      ],
      [
        "▁경찰관",
        -10.668646812438965
      ],
      [
        "▁경찰에",
        -9.67707633972168
      ],
      [
        "▁경찰은",
        -8.952733993530273
      ],
      [
        "▁경험",
        -9.129135131835938
      ],
      [
        "▁계",
        -8.77660083770752
      ],
      [
        "▁계기가",
        -10.785470962524414
      ],
      [
        "▁계기로",
        -10.417572975158691
      ],
      [
        "▁계산",
        -10.736120223999023
      ],
      [
        "▁계속",
        -8.517352104187012
      ],
      [
        "▁계약",
        -8.966897010803223
      ],
      [
        "▁계약을",
        -10.05543041229248
      ],
      [
        "▁계열사",
        -9.822569847106934
      ],
      [
        "▁계절",
        -11.02175521850586
      ],
      [
        "▁계좌",
        -10.572842597961426
      ],
      [
        "▁계획",
        -8.56284236907959
      ],
      [
        "▁계획을",
        -10.230202674865723
      ],
      [
        "▁계획이다",
        -8.585641860961914
      ],
      [
        "▁고",
        -7.135049343109131
      ],
      [
        "▁고객",
        -8.74325180053711
      ],
      [
        "▁고객들",
        -10.453666687011719
      ],
      [
        "▁고객에게",
        -10.85132122039795
      ],
      [
        "▁고교",
        -10.385457038879395
      ],
      [
        "▁고급",
        -10.348738670349121
      ],
      [
        "▁고려",
        -9.219823837280273
      ],
      [
        "▁고려해",
        -10.223036766052246
      ],
      [
        "▁고령",
        -10.780359268188477
      ],
      [
        "▁고민",
        -9.448659896850586
      ],
      [
        "▁고발",
        -9.850147247314453
      ],
      [
        "▁고백",
        -9.884637832641602
      ],
      [
        "▁고백했다",
        -10.726665496826172
      ],
      [
        "▁고소",
        -10.395081520080566
      ],
      [
        "▁고스란히",
        -11.166411399841309
      ],
      [
        "▁고양",
        -10.095011711120605
      ],
      [
        "▁고영욱",
        -10.925798416137695
      ],
      [
        "▁고용",
        -9.281547546386719
      ],
      [
        "▁고위",
        -10.06493091583252
      ],
      [
        "▁고통",
        -10.292560577392578
      ],
      [
        "▁곡",
        -9.52845573425293
      ],
      [
        "▁곧",
        -10.11058521270752
      ],
      [
        "▁곧바로",
        -10.403043746948242
      ],
      [
        "▁골",
        -8.6741361618042
      ],
      [
        "▁골든",
        -10.83000373840332
      ],
      [
        "▁골키퍼",
        -10.668445587158203
      ],
      [
        "▁골프",
        -9.92903995513916
      ],
      [
        "▁골프장",
        -10.82285213470459
      ],
      [
        "▁곳",
        -8.70070743560791
      ],
      [
        "▁곳이",
        -10.13196086883545
      ],
      [
        "▁공",
        -7.380551338195801
      ],
      [
        "▁공간",
        -9.79692554473877
      ],
      [
        "▁공감",
        -10.0226411819458
      ],
      [
        "▁공개",
        -7.9749298095703125
      ],
      [
        "▁공개됐다",
        -10.224388122558594
      ],
      [
        "▁공개된",
        -9.401077270507812
      ],
      [
        "▁공개했다",
        -9.491930961608887
      ],
      [
        "▁공격",
        -8.856812477111816
      ],
      [
        "▁공격수",
        -10.534963607788086
      ],
      [
        "▁공공",
        -9.496598243713379
      ],
      [
        "▁공공기관",
        -10.16883373260498
      ],
      [
        "▁공급",
        -8.871491432189941
      ],
      [
        "▁공단",
        -10.47821044921875
      ],
      [
        "▁공동",
        -8.65645694732666
      ],
      [
        "▁공략",
        -10.414737701416016
      ],
      [
        "▁공모",
        -9.795565605163574
      ],
      [
        "▁공무원",
        -9.299077033996582
      ],
      [
        "▁공방",
        -10.67802619934082
      ],
      [
        "▁공백",
        -10.849370956420898
      ],
      [
        "▁공부",
        -10.268035888671875
      ],
      [
        "▁공사",
        -9.232185363769531
      ],
      [
        "▁공시",
        -10.279407501220703
      ],
      [
        "▁공시했다",
        -10.689298629760742
      ],
      [
        "▁공식",
        -8.736323356628418
      ],
      [
        "▁공약",
        -9.159904479980469
      ],
      [
        "▁공연",
        -9.190797805786133
      ],
      [
        "▁공연을",
        -10.420746803283691
      ],
      [
        "▁공유",
        -9.977008819580078
      ],
      [
        "▁공장",
        -9.610289573669434
      ],
      [
        "▁공정",
        -9.986381530761719
      ],
      [
        "▁공정위",
        -10.395807266235352
      ],
      [
        "▁공포",
        -10.593636512756348
      ],
      [
        "▁공항",
        -9.836858749389648
      ],
      [
        "▁공화당",
        -10.69147777557373
      ],
      [
        "▁과감",
        -10.616992950439453
      ],
      [
        "▁과거",
        -9.006209373474121
      ],
      [
        "▁과도한",
        -10.930946350097656
      ],
      [
        "▁과세",
        -10.377307891845703
      ],
      [
        "▁과시",
        -10.449870109558105
      ],
      [
        "▁과시했다",
        -10.809632301330566
      ],
      [
        "▁과연",
        -10.573881149291992
      ],
      [
        "▁과장",
        -10.615742683410645
      ],
      [
        "▁과정",
        -9.556974411010742
      ],
      [
        "▁과정에서",
        -8.969792366027832
      ],
      [
        "▁과정을",
        -10.064075469970703
      ],
      [
        "▁과제",
        -9.884611129760742
      ],
      [
        "▁과징금",
        -11.043137550354004
      ],
      [
        "▁과태료",
        -10.951818466186523
      ],
      [
        "▁과학",
        -9.987422943115234
      ],
      [
        "▁곽",
        -10.432374954223633
      ],
      [
        "▁관",
        -8.473058700561523
      ],
      [
        "▁관객",
        -9.85352611541748
      ],
      [
        "▁관객들",
        -10.592232704162598
      ],
      [
        "▁관계",
        -8.917945861816406
      ],
      [
        "▁관계자",
        -9.558990478515625
      ],
      [
        "▁관계자는",
        -7.830744743347168
      ],
      [
        "▁관계자들",
        -10.088231086730957
      ],
      [
        "▁관광",
        -9.605820655822754
      ],
      [
        "▁관광객",
        -10.08747673034668
      ],
      [
        "▁관람",
        -10.576380729675293
      ],
      [
        "▁관련",
        -7.843797206878662
      ],
      [
        "▁관련된",
        -10.049338340759277
      ],
      [
        "▁관련사진",
        -10.485236167907715
      ],
      [
        "▁관련한",
        -10.148015975952148
      ],
      [
        "▁관련해",
        -8.988631248474121
      ],
      [
        "▁관리",
        -8.491869926452637
      ],
      [
        "▁관심",
        -9.519375801086426
      ],
      [
        "▁관심을",
        -9.177687644958496
      ],
      [
        "▁관심이",
        -9.47143268585205
      ],
      [
        "▁관중",
        -10.641010284423828
      ],
      [
        "▁관측",
        -9.94752311706543
      ],
      [
        "▁관한",
        -9.392390251159668
      ],
      [
        "▁관행",
        -10.615360260009766
      ],
      [
        "▁광",
        -8.746064186096191
      ],
      [
        "▁광고",
        -8.767559051513672
      ],
      [
        "▁광주",
        -9.282072067260742
      ],
      [
        "▁광주시",
        -10.788808822631836
      ],
      [
        "▁괜찮",
        -10.765121459960938
      ],
      [
        "▁괴",
        -10.155618667602539
      ],
      [
        "▁굉장히",
        -10.544661521911621
      ],
      [
        "▁교",
        -8.260248184204102
      ],
      [
        "▁교과부",
        -11.047964096069336
      ],
      [
        "▁교류",
        -10.54398250579834
      ],
      [
        "▁교사",
        -9.811007499694824
      ],
      [
        "▁교수",
        -9.084016799926758
      ],
      [
        "▁교수는",
        -9.709648132324219
      ],
      [
        "▁교육",
        -8.276834487915039
      ],
      [
        "▁교육부",
        -10.447036743164062
      ],
      [
        "▁교체",
        -9.637645721435547
      ],
      [
        "▁교통",
        -9.638208389282227
      ],
      [
        "▁교통사고",
        -10.744645118713379
      ],
      [
        "▁교환",
        -10.689263343811035
      ],
      [
        "▁구",
        -7.672745227813721
      ],
      [
        "▁구간",
        -10.324280738830566
      ],
      [
        "▁구글",
        -9.937689781188965
      ],
      [
        "▁구단",
        -9.576066970825195
      ],
      [
        "▁구매",
        -9.332757949829102
      ],
      [
        "▁구성",
        -8.806638717651367
      ],
      [
        "▁구성된",
        -10.065889358520508
      ],
      [
        "▁구속",
        -9.090922355651855
      ],
      [
        "▁구속기소",
        -11.125457763671875
      ],
      [
        "▁구입",
        -9.816204071044922
      ],
      [
        "▁구자철",
        -11.118897438049316
      ],
      [
        "▁구조",
        -9.192477226257324
      ],
      [
        "▁구조조정",
        -10.3402681350708
      ],
      [
        "▁구체적으로",
        -10.869407653808594
      ],
      [
        "▁구체적인",
        -10.032983779907227
      ],
      [
        "▁구축",
        -9.177285194396973
      ],
      [
        "▁구현",
        -10.471023559570312
      ],
      [
        "▁국",
        -8.277668952941895
      ],
      [
        "▁국가",
        -8.343419075012207
      ],
      [
        "▁국가기록원",
        -10.069056510925293
      ],
      [
        "▁국가대표",
        -10.449604034423828
      ],
      [
        "▁국가안보",
        -10.883268356323242
      ],
      [
        "▁국가정보원",
        -10.723565101623535
      ],
      [
        "▁국내",
        -7.803509712219238
      ],
      [
        "▁국내에서",
        -10.484210014343262
      ],
      [
        "▁국내외",
        -10.244718551635742
      ],
      [
        "▁국립",
        -9.857983589172363
      ],
      [
        "▁국무총리",
        -10.346994400024414
      ],
      [
        "▁국무회의",
        -11.150424003601074
      ],
      [
        "▁국민",
        -8.397635459899902
      ],
      [
        "▁국민들",
        -10.179210662841797
      ],
      [
        "▁국민연금",
        -10.196755409240723
      ],
      [
        "▁국민은행",
        -10.83547306060791
      ],
      [
        "▁국민의",
        -9.981728553771973
      ],
      [
        "▁국방",
        -10.142006874084473
      ],
      [
        "▁국방부",
        -9.87893295288086
      ],
      [
        "▁국세청",
        -10.123641967773438
      ],
      [
        "▁국정",
        -9.874175071716309
      ],
      [
        "▁국정원",
        -8.664107322692871
      ],
      [
        "▁국정조사",
        -9.322673797607422
      ],
      [
        "▁국제",
        -8.423541069030762
      ],
      [
        "▁국제사회",
        -10.968871116638184
      ],
      [
        "▁국조",
        -10.316595077514648
      ],
      [
        "▁국채",
        -10.466032981872559
      ],
      [
        "▁국토교통부",
        -10.994505882263184
      ],
      [
        "▁국토부",
        -10.228330612182617
      ],
      [
        "▁국토해양부",
        -10.929008483886719
      ],
      [
        "▁국회",
        -8.502223014831543
      ],
      [
        "▁국회에서",
        -10.203064918518066
      ],
      [
        "▁국회의원",
        -10.053324699401855
      ],
      [
        "▁군",
        -8.38431453704834
      ],
      [
        "▁군부",
        -10.407742500305176
      ],
      [
        "▁군사",
        -10.218343734741211
      ],
      [
        "▁굴",
        -10.406464576721191
      ],
      [
        "▁궁금",
        -10.33110523223877
      ],
      [
        "▁권",
        -8.667594909667969
      ],
      [
        "▁권력",
        -10.247570037841797
      ],
      [
        "▁권리",
        -10.406160354614258
      ],
      [
        "▁권한",
        -10.173377990722656
      ],
      [
        "▁귀",
        -8.991065979003906
      ],
      [
        "▁귀국",
        -10.565999031066895
      ],
      [
        "▁귀여운",
        -10.893939971923828
      ],
      [
        "▁귀엽",
        -11.157861709594727
      ],
      [
        "▁규명",
        -10.529210090637207
      ],
      [
        "▁규모",
        -8.738777160644531
      ],
      [
        "▁규모로",
        -10.595540046691895
      ],
      [
        "▁규모의",
        -9.595230102539062
      ],
      [
        "▁규정",
        -9.409465789794922
      ],
      [
        "▁규제",
        -9.38134765625
      ],
      [
        "▁균형",
        -10.43460464477539
      ],
      [
        "▁그",
        -6.846485137939453
      ],
      [
        "▁그가",
        -10.132818222045898
      ],
      [
        "▁그간",
        -10.398930549621582
      ],
      [
        "▁그것이",
        -11.169942855834961
      ],
      [
        "▁그냥",
        -10.525691032409668
      ],
      [
        "▁그녀",
        -9.848092079162598
      ],
      [
        "▁그는",
        -7.670865535736084
      ],
      [
        "▁그대로",
        -9.495502471923828
      ],
      [
        "▁그동안",
        -9.09763240814209
      ],
      [
        "▁그때",
        -10.564002990722656
      ],
      [
        "▁그래서",
        -9.758020401000977
      ],
      [
        "▁그래픽",
        -11.186884880065918
      ],
      [
        "▁그랬",
        -10.959685325622559
      ],
      [
        "▁그러",
        -9.504859924316406
      ],
      [
        "▁그러나",
        -8.073700904846191
      ],
      [
        "▁그러면서",
        -9.839933395385742
      ],
      [
        "▁그런",
        -9.028707504272461
      ],
      [
        "▁그런데",
        -9.658498764038086
      ],
      [
        "▁그럼에도",
        -11.15020751953125
      ],
      [
        "▁그렇게",
        -9.852987289428711
      ],
      [
        "▁그렇지",
        -10.588033676147461
      ],
      [
        "▁그려",
        -10.378308296203613
      ],
      [
        "▁그려졌다",
        -10.820649147033691
      ],
      [
        "▁그룹",
        -9.039865493774414
      ],
      [
        "▁그리",
        -10.012250900268555
      ],
      [
        "▁그리고",
        -8.874428749084473
      ],
      [
        "▁그린",
        -9.644219398498535
      ],
      [
        "▁그림",
        -9.951264381408691
      ],
      [
        "▁그만큼",
        -10.525141716003418
      ],
      [
        "▁그의",
        -9.396744728088379
      ],
      [
        "▁그쳤다",
        -10.308452606201172
      ],
      [
        "▁극",
        -9.14901065826416
      ],
      [
        "▁극대화",
        -10.826147079467773
      ],
      [
        "▁극복",
        -10.069551467895508
      ],
      [
        "▁극중",
        -10.793917655944824
      ],
      [
        "▁극찬",
        -10.887871742248535
      ],
      [
        "▁근",
        -9.72669506072998
      ],
      [
        "▁근거",
        -9.948780059814453
      ],
      [
        "▁근로",
        -10.57868766784668
      ],
      [
        "▁근로자",
        -9.825946807861328
      ],
      [
        "▁근무",
        -9.532021522521973
      ],
      [
        "▁근본",
        -11.092814445495605
      ],
      [
        "▁근육",
        -11.072370529174805
      ],
      [
        "▁근절",
        -11.046649932861328
      ],
      [
        "▁근처",
        -11.044046401977539
      ],
      [
        "▁근황",
        -10.5579833984375
      ],
      [
        "▁글",
        -9.173910140991211
      ],
      [
        "▁글과",
        -10.133763313293457
      ],
      [
        "▁글로벌",
        -8.666107177734375
      ],
      [
        "▁글을",
        -9.830806732177734
      ],
      [
        "▁금",
        -8.538211822509766
      ],
      [
        "▁금감원",
        -9.961286544799805
      ],
      [
        "▁금리",
        -9.35972785949707
      ],
      [
        "▁금메달",
        -10.38575267791748
      ],
      [
        "▁금액",
        -9.84842300415039
      ],
      [
        "▁금융",
        -8.368929862976074
      ],
      [
        "▁금융감독원",
        -10.515525817871094
      ],
      [
        "▁금융권",
        -10.779621124267578
      ],
      [
        "▁금융기관",
        -10.852531433105469
      ],
      [
        "▁금융당국",
        -11.024619102478027
      ],
      [
        "▁금융위기",
        -10.712800025939941
      ],
      [
        "▁금융투자",
        -10.853238105773926
      ],
      [
        "▁금융회사",
        -10.913360595703125
      ],
      [
        "▁금지",
        -9.727095603942871
      ],
      [
        "▁금품을",
        -10.61585807800293
      ],
      [
        "▁급",
        -9.117280006408691
      ],
      [
        "▁급격",
        -10.549198150634766
      ],
      [
        "▁급등",
        -10.126635551452637
      ],
      [
        "▁급락",
        -10.682012557983398
      ],
      [
        "▁급여",
        -10.575455665588379
      ],
      [
        "▁급증",
        -10.108338356018066
      ],
      [
        "▁긍정적",
        -10.231696128845215
      ],
      [
        "▁긍정적인",
        -10.618317604064941
      ],
      [
        "▁기",
        -7.522303104400635
      ],
      [
        "▁기간",
        -8.601040840148926
      ],
      [
        "▁기계",
        -10.488022804260254
      ],
      [
        "▁기관",
        -8.819398880004883
      ],
      [
        "▁기기",
        -10.547502517700195
      ],
      [
        "▁기념",
        -9.4022216796875
      ],
      [
        "▁기능",
        -9.210387229919434
      ],
      [
        "▁기능을",
        -9.872786521911621
      ],
      [
        "▁기다리",
        -10.434414863586426
      ],
      [
        "▁기대",
        -8.540361404418945
      ],
      [
        "▁기대감",
        -9.64809513092041
      ],
      [
        "▁기대된다",
        -10.031631469726562
      ],
      [
        "▁기대를",
        -10.208128929138184
      ],
      [
        "▁기대하고",
        -10.5867338180542
      ],
      [
        "▁기대한다",
        -10.357109069824219
      ],
      [
        "▁기록",
        -8.138851165771484
      ],
      [
        "▁기록하고",
        -10.451729774475098
      ],
      [
        "▁기록하며",
        -10.05639362335205
      ],
      [
        "▁기록한",
        -9.81833267211914
      ],
      [
        "▁기록했다",
        -8.644325256347656
      ],
      [
        "▁기반",
        -9.798280715942383
      ],
      [
        "▁기반으로",
        -10.756875038146973
      ],
      [
        "▁기본",
        -9.260377883911133
      ],
      [
        "▁기부",
        -9.935294151306152
      ],
      [
        "▁기분",
        -10.375872611999512
      ],
      [
        "▁기사",
        -9.234609603881836
      ],
      [
        "▁기사본문",
        -10.685572624206543
      ],
      [
        "▁기상",
        -10.07979679107666
      ],
      [
        "▁기성용",
        -9.634023666381836
      ],
      [
        "▁기소",
        -9.764910697937012
      ],
      [
        "▁기소된",
        -10.656722068786621
      ],
      [
        "▁기술",
        -8.517438888549805
      ],
      [
        "▁기아차",
        -10.155279159545898
      ],
      [
        "▁기억",
        -9.894615173339844
      ],
      [
        "▁기업",
        -8.006860733032227
      ],
      [
        "▁기업들",
        -9.769938468933105
      ],
      [
        "▁기업의",
        -10.003344535827637
      ],
      [
        "▁기여",
        -9.803224563598633
      ],
      [
        "▁기온",
        -10.409499168395996
      ],
      [
        "▁기울",
        -10.220155715942383
      ],
      [
        "▁기재부",
        -11.028059005737305
      ],
      [
        "▁기조",
        -10.294034957885742
      ],
      [
        "▁기존",
        -8.538158416748047
      ],
      [
        "▁기준",
        -8.670917510986328
      ],
      [
        "▁기준금리",
        -10.787959098815918
      ],
      [
        "▁기준으로",
        -9.723488807678223
      ],
      [
        "▁기초",
        -9.752510070800781
      ],
      [
        "▁기초자산",
        -10.703941345214844
      ],
      [
        "▁기타",
        -10.12087345123291
      ],
      [
        "▁기회",
        -9.463799476623535
      ],
      [
        "▁기회를",
        -9.705299377441406
      ],
      [
        "▁기획",
        -9.563193321228027
      ],
      [
        "▁기획재정부",
        -10.312530517578125
      ],
      [
        "▁긴",
        -10.243648529052734
      ],
      [
        "▁긴급",
        -9.812172889709473
      ],
      [
        "▁긴장",
        -10.419624328613281
      ],
      [
        "▁긴장감",
        -10.938673973083496
      ],
      [
        "▁길",
        -8.772257804870605
      ],
      [
        "▁김",
        -6.758847713470459
      ],
      [
        "▁김기",
        -10.186929702758789
      ],
      [
        "▁김동",
        -10.34924030303955
      ],
      [
        "▁김모",
        -10.300076484680176
      ],
      [
        "▁김민",
        -10.195472717285156
      ],
      [
        "▁김성",
        -9.82162094116211
      ],
      [
        "▁김씨",
        -10.18795108795166
      ],
      [
        "▁김씨는",
        -10.140632629394531
      ],
      [
        "▁김연경",
        -11.070719718933105
      ],
      [
        "▁김연아",
        -10.725086212158203
      ],
      [
        "▁김영",
        -9.919879913330078
      ],
      [
        "▁김용",
        -10.306755065917969
      ],
      [
        "▁김용준",
        -10.444680213928223
      ],
      [
        "▁김재",
        -10.22817611694336
      ],
      [
        "▁김정",
        -9.606122016906738
      ],
      [
        "▁김종",
        -10.309864044189453
      ],
      [
        "▁김종학",
        -10.890161514282227
      ],
      [
        "▁김진",
        -10.31806468963623
      ],
      [
        "▁김태",
        -9.994953155517578
      ],
      [
        "▁김태희",
        -10.722981452941895
      ],
      [
        "▁김한길",
        -11.146819114685059
      ],
      [
        "▁김현",
        -9.814934730529785
      ],
      [
        "▁깊은",
        -10.384003639221191
      ],
      [
        "▁깊이",
        -10.977160453796387
      ],
      [
        "▁깔",
        -10.44176197052002
      ],
      [
        "▁깜짝",
        -9.94780158996582
      ],
      [
        "▁깨",
        -9.663301467895508
      ],
      [
        "▁깨끗",
        -11.069784164428711
      ],
      [
        "▁꺼",
        -10.095890045166016
      ],
      [
        "▁꺾고",
        -10.904175758361816
      ],
      [
        "▁꼬리",
        -10.851616859436035
      ],
      [
        "▁꼭",
        -9.810205459594727
      ],
      [
        "▁꼽았다",
        -10.566137313842773
      ],
      [
        "▁꼽히",
        -10.918039321899414
      ],
      [
        "▁꼽힌다",
        -11.034075736999512
      ],
      [
        "▁꽃",
        -9.926809310913086
      ],
      [
        "▁꽃미남",
        -11.069477081298828
      ],
      [
        "▁꾸",
        -9.613659858703613
      ],
      [
        "▁꾸준한",
        -11.125449180603027
      ],
      [
        "▁꾸준히",
        -9.972002029418945
      ],
      [
        "▁꿈",
        -9.422806739807129
      ],
      [
        "▁꿈꾸",
        -11.120301246643066
      ],
      [
        "▁끈다",
        -10.557522773742676
      ],
      [
        "▁끊임없",
        -10.96468734741211
      ],
      [
        "▁끌고",
        -10.098345756530762
      ],
      [
        "▁끌어",
        -10.002389907836914
      ],
      [
        "▁끌었다",
        -9.652361869812012
      ],
      [
        "▁끝",
        -9.363631248474121
      ],
      [
        "▁끝까지",
        -10.731573104858398
      ],
      [
        "▁끝나",
        -9.868477821350098
      ],
      [
        "▁끝난",
        -10.214756965637207
      ],
      [
        "▁끝내",
        -10.12275505065918
      ],
      [
        "▁끝에",
        -9.741394996643066
      ],
      [
        "▁끼",
        -9.79580307006836
      ],
      [
        "▁나",
        -7.594353199005127
      ],
      [
        "▁나가",
        -9.338249206542969
      ],
      [
        "▁나갈",
        -9.971190452575684
      ],
      [
        "▁나누",
        -9.963907241821289
      ],
      [
        "▁나눠",
        -10.128833770751953
      ],
      [
        "▁나는",
        -9.993216514587402
      ],
      [
        "▁나라",
        -9.479782104492188
      ],
      [
        "▁나란히",
        -10.62540054321289
      ],
      [
        "▁나로호",
        -10.751951217651367
      ],
      [
        "▁나머지",
        -9.815059661865234
      ],
      [
        "▁나쁜",
        -10.649422645568848
      ],
      [
        "▁나서",
        -8.876535415649414
      ],
      [
        "▁나선",
        -9.789627075195312
      ],
      [
        "▁나선다",
        -10.341236114501953
      ],
      [
        "▁나설",
        -10.212661743164062
      ],
      [
        "▁나섰",
        -10.7542085647583
      ],
      [
        "▁나섰다",
        -9.596487045288086
      ],
      [
        "▁나아가",
        -10.74174690246582
      ],
      [
        "▁나오",
        -9.502883911132812
      ],
      [
        "▁나오고",
        -9.887283325195312
      ],
      [
        "▁나오는",
        -10.121834754943848
      ],
      [
        "▁나온",
        -9.65426254272461
      ],
      [
        "▁나온다",
        -9.702350616455078
      ],
      [
        "▁나올",
        -10.137825965881348
      ],
      [
        "▁나와",
        -9.691606521606445
      ],
      [
        "▁나왔",
        -10.456086158752441
      ],
      [
        "▁나왔다",
        -9.556095123291016
      ],
      [
        "▁나이",
        -9.475157737731934
      ],
      [
        "▁나중에",
        -11.162311553955078
      ],
      [
        "▁나타나",
        -9.941508293151855
      ],
      [
        "▁나타난",
        -10.914810180664062
      ],
      [
        "▁나타났다",
        -9.00430679321289
      ],
      [
        "▁나타내",
        -10.330292701721191
      ],
      [
        "▁나타냈다",
        -10.08849048614502
      ],
      [
        "▁낙",
        -9.432246208190918
      ],
      [
        "▁낙찰",
        -10.999787330627441
      ],
      [
        "▁난",
        -8.775200843811035
      ],
      [
        "▁날",
        -8.337095260620117
      ],
      [
        "▁날씨",
        -10.155943870544434
      ],
      [
        "▁남",
        -7.927700042724609
      ],
      [
        "▁남겨",
        -10.788549423217773
      ],
      [
        "▁남겼다",
        -10.556208610534668
      ],
      [
        "▁남긴",
        -10.853025436401367
      ],
      [
        "▁남녀",
        -10.280948638916016
      ],
      [
        "▁남다른",
        -11.056378364562988
      ],
      [
        "▁남부",
        -10.264233589172363
      ],
      [
        "▁남북",
        -9.322641372680664
      ],
      [
        "▁남북관계",
        -11.079680442810059
      ],
      [
        "▁남북정상회담",
        -10.14512825012207
      ],
      [
        "▁남성",
        -9.170612335205078
      ],
      [
        "▁남아",
        -10.3970947265625
      ],
      [
        "▁남아있",
        -10.861395835876465
      ],
      [
        "▁남은",
        -10.365626335144043
      ],
      [
        "▁남자",
        -8.791986465454102
      ],
      [
        "▁남자친구",
        -10.92003345489502
      ],
      [
        "▁남편",
        -9.70068073272705
      ],
      [
        "▁납부",
        -10.52099609375
      ],
      [
        "▁납치",
        -11.075360298156738
      ],
      [
        "▁납품",
        -10.312198638916016
      ],
      [
        "▁낮",
        -9.02100944519043
      ],
      [
        "▁낮아",
        -10.080121994018555
      ],
      [
        "▁낮은",
        -9.645164489746094
      ],
      [
        "▁낮추",
        -10.753678321838379
      ],
      [
        "▁낳",
        -10.444113731384277
      ],
      [
        "▁내",
        -7.007142543792725
      ],
      [
        "▁내가",
        -9.582242965698242
      ],
      [
        "▁내내",
        -10.514840126037598
      ],
      [
        "▁내년",
        -9.451189041137695
      ],
      [
        "▁내놓",
        -9.33159065246582
      ],
      [
        "▁내놨다",
        -11.046320915222168
      ],
      [
        "▁내다봤다",
        -10.085161209106445
      ],
      [
        "▁내달",
        -10.076692581176758
      ],
      [
        "▁내려",
        -9.103780746459961
      ],
      [
        "▁내렸다",
        -9.962494850158691
      ],
      [
        "▁내리",
        -9.673014640808105
      ],
      [
        "▁내린",
        -9.63216781616211
      ],
      [
        "▁내부",
        -9.32180404663086
      ],
      [
        "▁내수",
        -10.317561149597168
      ],
      [
        "▁내야",
        -10.50731372833252
      ],
      [
        "▁내용",
        -9.37644100189209
      ],
      [
        "▁내용은",
        -10.264116287231445
      ],
      [
        "▁내용을",
        -9.418342590332031
      ],
      [
        "▁내용의",
        -10.166033744812012
      ],
      [
        "▁내용이",
        -9.953385353088379
      ],
      [
        "▁낸",
        -9.714048385620117
      ],
      [
        "▁냈다",
        -10.172982215881348
      ],
      [
        "▁냉",
        -9.830391883850098
      ],
      [
        "▁너",
        -10.300743103027344
      ],
      [
        "▁너무",
        -8.888702392578125
      ],
      [
        "▁넓",
        -9.957039833068848
      ],
      [
        "▁넘",
        -9.059656143188477
      ],
      [
        "▁넘게",
        -10.229049682617188
      ],
      [
        "▁넘겨",
        -10.49504280090332
      ],
      [
        "▁넘기",
        -10.668951034545898
      ],
      [
        "▁넘는",
        -9.612122535705566
      ],
      [
        "▁넘어",
        -9.003514289855957
      ],
      [
        "▁넘치는",
        -10.375505447387695
      ],
      [
        "▁넣",
        -9.703855514526367
      ],
      [
        "▁넣어",
        -10.791341781616211
      ],
      [
        "▁네",
        -9.13345718383789
      ],
      [
        "▁네이버",
        -10.66302490234375
      ],
      [
        "▁네트워크",
        -10.264728546142578
      ],
      [
        "▁네티즌",
        -10.355389595031738
      ],
      [
        "▁네티즌들",
        -10.782170295715332
      ],
      [
        "▁네티즌들은",
        -9.283612251281738
      ],
      [
        "▁넥센",
        -9.942262649536133
      ],
      [
        "▁노",
        -8.096622467041016
      ],
      [
        "▁노동",
        -9.845645904541016
      ],
      [
        "▁노동자",
        -10.706093788146973
      ],
      [
        "▁노래",
        -9.378941535949707
      ],
      [
        "▁노량진",
        -11.109268188476562
      ],
      [
        "▁노력",
        -9.010504722595215
      ],
      [
        "▁노력을",
        -10.215219497680664
      ],
      [
        "▁노력하겠다",
        -10.77973747253418
      ],
      [
        "▁노무현",
        -10.132164001464844
      ],
      [
        "▁노사",
        -10.55150318145752
      ],
      [
        "▁노선",
        -10.484878540039062
      ],
      [
        "▁노인",
        -9.886816024780273
      ],
      [
        "▁노조",
        -9.656428337097168
      ],
      [
        "▁노출",
        -9.651932716369629
      ],
      [
        "▁노트북",
        -11.171666145324707
      ],
      [
        "▁노하우",
        -10.789380073547363
      ],
      [
        "▁노홍철",
        -11.039530754089355
      ],
      [
        "▁노후",
        -10.781013488769531
      ],
      [
        "▁녹",
        -9.843745231628418
      ],
      [
        "▁녹색",
        -10.735466003417969
      ],
      [
        "▁녹음",
        -10.65600872039795
      ],
      [
        "▁녹화",
        -9.93941879272461
      ],
      [
        "▁논",
        -9.762529373168945
      ],
      [
        "▁논란",
        -8.914839744567871
      ],
      [
        "▁논란이",
        -9.61103343963623
      ],
      [
        "▁논리",
        -10.89024829864502
      ],
      [
        "▁논의",
        -8.877041816711426
      ],
      [
        "▁논쟁",
        -11.06358814239502
      ],
      [
        "▁놀",
        -9.705151557922363
      ],
      [
        "▁놀라",
        -10.397581100463867
      ],
      [
        "▁놀라게",
        -11.01156234741211
      ],
      [
        "▁농",
        -8.640486717224121
      ],
      [
        "▁농업",
        -10.426053047180176
      ],
      [
        "▁농촌",
        -10.851654052734375
      ],
      [
        "▁농협",
        -10.382713317871094
      ],
      [
        "▁높",
        -9.350238800048828
      ],
      [
        "▁높게",
        -10.636096954345703
      ],
      [
        "▁높다",
        -9.606325149536133
      ],
      [
        "▁높아",
        -9.556401252746582
      ],
      [
        "▁높아졌다",
        -11.140018463134766
      ],
      [
        "▁높아지고",
        -10.904726028442383
      ],
      [
        "▁높았다",
        -10.797648429870605
      ],
      [
        "▁높여",
        -10.683662414550781
      ],
      [
        "▁높였다",
        -10.422986030578613
      ],
      [
        "▁높은",
        -8.50506591796875
      ],
      [
        "▁높이",
        -9.237236022949219
      ],
      [
        "▁놓",
        -9.312931060791016
      ],
      [
        "▁놓고",
        -9.36626148223877
      ],
      [
        "▁뇌",
        -10.531240463256836
      ],
      [
        "▁뇌물",
        -11.039512634277344
      ],
      [
        "▁누",
        -8.813336372375488
      ],
      [
        "▁누가",
        -10.459754943847656
      ],
      [
        "▁누구",
        -9.798397064208984
      ],
      [
        "▁누구나",
        -10.479039192199707
      ],
      [
        "▁누군가",
        -11.042600631713867
      ],
      [
        "▁누리꾼들",
        -11.078731536865234
      ],
      [
        "▁누리꾼들은",
        -10.013472557067871
      ],
      [
        "▁누적",
        -10.423895835876465
      ],
      [
        "▁누출",
        -10.66287612915039
      ],
      [
        "▁눈",
        -8.421357154846191
      ],
      [
        "▁눈길을",
        -9.069255828857422
      ],
      [
        "▁눈물",
        -10.069849967956543
      ],
      [
        "▁눈물을",
        -10.477675437927246
      ],
      [
        "▁눈빛",
        -10.77563762664795
      ],
      [
        "▁눈에",
        -10.00610637664795
      ],
      [
        "▁뉴",
        -9.928030014038086
      ],
      [
        "▁뉴스",
        -9.102620124816895
      ],
      [
        "▁뉴욕",
        -9.420599937438965
      ],
      [
        "▁느껴",
        -10.421798706054688
      ],
      [
        "▁느꼈",
        -10.976778984069824
      ],
      [
        "▁느끼",
        -9.997514724731445
      ],
      [
        "▁느낀",
        -10.919775009155273
      ],
      [
        "▁느낄",
        -10.699711799621582
      ],
      [
        "▁느낌",
        -9.785585403442383
      ],
      [
        "▁늘",
        -9.005939483642578
      ],
      [
        "▁늘려",
        -10.744731903076172
      ],
      [
        "▁늘리",
        -10.23431396484375
      ],
      [
        "▁늘어",
        -10.301045417785645
      ],
      [
        "▁늘어나",
        -9.89466667175293
      ],
      [
        "▁늘어난",
        -9.800552368164062
      ],
      [
        "▁늘어날",
        -10.613077163696289
      ],
      [
        "▁늘어났다",
        -10.89768123626709
      ],
      [
        "▁늘었다",
        -9.947787284851074
      ],
      [
        "▁능력",
        -9.944390296936035
      ],
      [
        "▁능력을",
        -10.54133129119873
      ],
      [
        "▁늦어",
        -10.83193588256836
      ],
      [
        "▁다",
        -7.330376625061035
      ],
      [
        "▁다녀",
        -10.878815650939941
      ],
      [
        "▁다니",
        -10.181386947631836
      ],
      [
        "▁다룬",
        -11.104113578796387
      ],
      [
        "▁다르다",
        -10.489006996154785
      ],
      [
        "▁다른",
        -7.942420959472656
      ],
      [
        "▁다리",
        -10.289928436279297
      ],
      [
        "▁다만",
        -9.25508975982666
      ],
      [
        "▁다문화",
        -10.896703720092773
      ],
      [
        "▁다섯",
        -10.779075622558594
      ],
      [
        "▁다소",
        -9.582839012145996
      ],
      [
        "▁다수",
        -10.184432029724121
      ],
      [
        "▁다시",
        -8.120984077453613
      ],
      [
        "▁다양한",
        -8.16946029663086
      ],
      [
        "▁다운로드",
        -10.324285507202148
      ],
      [
        "▁다음",
        -8.708866119384766
      ],
      [
        "▁다음날",
        -10.854316711425781
      ],
      [
        "▁다음달",
        -9.825422286987305
      ],
      [
        "▁다이어트",
        -10.69603157043457
      ],
      [
        "▁다저스",
        -9.667769432067871
      ],
      [
        "▁다저스는",
        -10.51062297821045
      ],
      [
        "▁다짐",
        -10.669822692871094
      ],
      [
        "▁다하겠다",
        -10.835139274597168
      ],
      [
        "▁단",
        -8.065359115600586
      ],
      [
        "▁단계",
        -9.616236686706543
      ],
      [
        "▁단기",
        -10.16350269317627
      ],
      [
        "▁단독",
        -9.693236351013184
      ],
      [
        "▁단말기",
        -10.993309020996094
      ],
      [
        "▁단속",
        -9.897200584411621
      ],
      [
        "▁단순",
        -9.932023048400879
      ],
      [
        "▁단장",
        -10.698986053466797
      ],
      [
        "▁단지",
        -10.013663291931152
      ],
      [
        "▁단체",
        -9.650378227233887
      ],
      [
        "▁단축",
        -10.94849967956543
      ],
      [
        "▁단행",
        -10.604772567749023
      ],
      [
        "▁달",
        -8.122103691101074
      ],
      [
        "▁달라",
        -9.14854907989502
      ],
      [
        "▁달러",
        -8.991691589355469
      ],
      [
        "▁달려",
        -10.602485656738281
      ],
      [
        "▁달리",
        -9.107629776000977
      ],
      [
        "▁달성",
        -9.226164817810059
      ],
      [
        "▁달아",
        -10.334848403930664
      ],
      [
        "▁달하는",
        -10.266548156738281
      ],
      [
        "▁달한다",
        -10.617646217346191
      ],
      [
        "▁닮은",
        -11.078105926513672
      ],
      [
        "▁담",
        -8.965044975280762
      ],
      [
        "▁담겨",
        -10.103873252868652
      ],
      [
        "▁담긴",
        -10.28636646270752
      ],
      [
        "▁담당",
        -9.24020004272461
      ],
      [
        "▁담배",
        -10.856376647949219
      ],
      [
        "▁담보",
        -10.643976211547852
      ],
      [
        "▁담아",
        -10.591618537902832
      ],
      [
        "▁담은",
        -9.808167457580566
      ],
      [
        "▁답",
        -9.563323020935059
      ],
      [
        "▁답변",
        -10.188175201416016
      ],
      [
        "▁답했다",
        -10.088600158691406
      ],
      [
        "▁당",
        -7.843140602111816
      ],
      [
        "▁당국",
        -9.408808708190918
      ],
      [
        "▁당기순이익",
        -11.117469787597656
      ],
      [
        "▁당부했다",
        -9.851966857910156
      ],
      [
        "▁당분간",
        -10.333910942077637
      ],
      [
        "▁당사자",
        -10.853987693786621
      ],
      [
        "▁당선",
        -10.332368850708008
      ],
      [
        "▁당선인",
        -8.09964656829834
      ],
      [
        "▁당시",
        -8.176233291625977
      ],
      [
        "▁당연히",
        -11.05418586730957
      ],
      [
        "▁당장",
        -10.248217582702637
      ],
      [
        "▁당첨",
        -10.765192985534668
      ],
      [
        "▁당초",
        -9.9304780960083
      ],
      [
        "▁당했다",
        -10.57545280456543
      ],
      [
        "▁당황",
        -10.54403305053711
      ],
      [
        "▁대",
        -7.209974765777588
      ],
      [
        "▁대거",
        -10.364422798156738
      ],
      [
        "▁대결",
        -10.011610984802246
      ],
      [
        "▁대구",
        -9.195060729980469
      ],
      [
        "▁대규모",
        -9.74044132232666
      ],
      [
        "▁대기",
        -10.215563774108887
      ],
      [
        "▁대기업",
        -9.513043403625488
      ],
      [
        "▁대다수",
        -11.153251647949219
      ],
      [
        "▁대단",
        -10.457589149475098
      ],
      [
        "▁대답",
        -10.670742988586426
      ],
      [
        "▁대리점",
        -10.806353569030762
      ],
      [
        "▁대만",
        -10.139535903930664
      ],
      [
        "▁대법원",
        -10.312199592590332
      ],
      [
        "▁대변인",
        -9.086414337158203
      ],
      [
        "▁대부분",
        -8.99361801147461
      ],
      [
        "▁대북",
        -10.10814380645752
      ],
      [
        "▁대비",
        -8.355391502380371
      ],
      [
        "▁대사",
        -10.614287376403809
      ],
      [
        "▁대상",
        -8.704121589660645
      ],
      [
        "▁대상으로",
        -8.74018669128418
      ],
      [
        "▁대상자",
        -10.659282684326172
      ],
      [
        "▁대선",
        -8.809590339660645
      ],
      [
        "▁대신",
        -9.160798072814941
      ],
      [
        "▁대안",
        -10.43651008605957
      ],
      [
        "▁대외",
        -10.597825050354004
      ],
      [
        "▁대우",
        -10.149819374084473
      ],
      [
        "▁대응",
        -9.127359390258789
      ],
      [
        "▁대전",
        -9.249305725097656
      ],
      [
        "▁대중",
        -9.906200408935547
      ],
      [
        "▁대중교통",
        -11.166221618652344
      ],
      [
        "▁대책",
        -9.266732215881348
      ],
      [
        "▁대처",
        -10.477904319763184
      ],
      [
        "▁대체",
        -9.804610252380371
      ],
      [
        "▁대출",
        -9.180510520935059
      ],
      [
        "▁대통령",
        -8.04202651977539
      ],
      [
        "▁대통령은",
        -9.223763465881348
      ],
      [
        "▁대통령의",
        -9.251981735229492
      ],
      [
        "▁대통령이",
        -9.312438011169434
      ],
      [
        "▁대통령직",
        -10.274346351623535
      ],
      [
        "▁대통령직인수위원회",
        -11.015217781066895
      ],
      [
        "▁대폭",
        -10.107650756835938
      ],
      [
        "▁대표",
        -8.079251289367676
      ],
      [
        "▁대표는",
        -9.29794979095459
      ],
      [
        "▁대표단",
        -10.672154426574707
      ],
      [
        "▁대표이사",
        -10.300869941711426
      ],
      [
        "▁대표적인",
        -10.33419418334961
      ],
      [
        "▁대표팀",
        -9.41851806640625
      ],
      [
        "▁대학",
        -8.824576377868652
      ],
      [
        "▁대학생",
        -10.20494556427002
      ],
      [
        "▁대한",
        -6.889414310455322
      ],
      [
        "▁대한민국",
        -9.64397144317627
      ],
      [
        "▁대한항공",
        -10.483508110046387
      ],
      [
        "▁대해",
        -7.361545085906982
      ],
      [
        "▁대해서",
        -10.551676750183105
      ],
      [
        "▁대해서는",
        -9.064292907714844
      ],
      [
        "▁대해서도",
        -9.807753562927246
      ],
      [
        "▁대해선",
        -10.580307960510254
      ],
      [
        "▁대형",
        -9.131803512573242
      ],
      [
        "▁대형마트",
        -10.762205123901367
      ],
      [
        "▁대화",
        -9.390325546264648
      ],
      [
        "▁대화록",
        -9.251080513000488
      ],
      [
        "▁대회",
        -8.651076316833496
      ],
      [
        "▁대회에서",
        -10.409577369689941
      ],
      [
        "▁댄스",
        -10.43338680267334
      ],
      [
        "▁댓글",
        -10.149101257324219
      ],
      [
        "▁더",
        -7.279850482940674
      ],
      [
        "▁더불어",
        -10.041841506958008
      ],
      [
        "▁더욱",
        -8.560914993286133
      ],
      [
        "▁덕",
        -10.007806777954102
      ],
      [
        "▁덕분에",
        -10.68943977355957
      ],
      [
        "▁던지",
        -10.59907341003418
      ],
      [
        "▁덜",
        -10.152692794799805
      ],
      [
        "▁덧붙였다",
        -8.65642261505127
      ],
      [
        "▁데",
        -8.057169914245605
      ],
      [
        "▁데뷔",
        -9.187908172607422
      ],
      [
        "▁데이터",
        -9.668471336364746
      ],
      [
        "▁데이트",
        -10.809494018554688
      ],
      [
        "▁도내",
        -10.543261528015137
      ],
      [
        "▁도로",
        -9.622782707214355
      ],
      [
        "▁도발",
        -11.040060997009277
      ],
      [
        "▁도시",
        -9.0663423538208
      ],
      [
        "▁도심",
        -10.640010833740234
      ],
      [
        "▁도약",
        -10.62299919128418
      ],
      [
        "▁도와",
        -10.521185874938965
      ],
      [
        "▁도움",
        -10.822579383850098
      ],
      [
        "▁도움을",
        -10.177754402160645
      ],
      [
        "▁도움이",
        -9.855100631713867
      ],
      [
        "▁도입",
        -9.058921813964844
      ],
      [
        "▁도전",
        -9.252482414245605
      ],
      [
        "▁도중",
        -10.514455795288086
      ],
      [
        "▁도착",
        -10.054113388061523
      ],
      [
        "▁도쿄",
        -10.439279556274414
      ],
      [
        "▁독",
        -8.862836837768555
      ],
      [
        "▁독립",
        -10.071080207824707
      ],
      [
        "▁독일",
        -9.423209190368652
      ],
      [
        "▁독자",
        -10.75678825378418
      ],
      [
        "▁독특한",
        -10.768083572387695
      ],
      [
        "▁돈",
        -9.237631797790527
      ],
      [
        "▁돈을",
        -9.620015144348145
      ],
      [
        "▁돌",
        -8.96922492980957
      ],
      [
        "▁돌려",
        -10.208066940307617
      ],
      [
        "▁돌아",
        -9.310673713684082
      ],
      [
        "▁돌아가",
        -10.369454383850098
      ],
      [
        "▁돌아오",
        -10.921696662902832
      ],
      [
        "▁돌아온",
        -10.812784194946289
      ],
      [
        "▁돌입",
        -10.347289085388184
      ],
      [
        "▁돌파",
        -9.580994606018066
      ],
      [
        "▁돕는",
        -11.09388542175293
      ],
      [
        "▁동",
        -7.642388343811035
      ],
      [
        "▁동결",
        -10.705204963684082
      ],
      [
        "▁동기",
        -9.831611633300781
      ],
      [
        "▁동남아",
        -10.998456954956055
      ],
      [
        "▁동료",
        -9.961668968200684
      ],
      [
        "▁동물",
        -10.558582305908203
      ],
      [
        "▁동반",
        -10.07997989654541
      ],
      [
        "▁동반성장",
        -11.187823295593262
      ],
      [
        "▁동부",
        -9.899277687072754
      ],
      [
        "▁동생",
        -10.318182945251465
      ],
      [
        "▁동시에",
        -9.389578819274902
      ],
      [
        "▁동아시안컵",
        -10.58983325958252
      ],
      [
        "▁동아제약",
        -10.720207214355469
      ],
      [
        "▁동안",
        -8.318410873413086
      ],
      [
        "▁동양",
        -10.218116760253906
      ],
      [
        "▁동영상",
        -10.074840545654297
      ],
      [
        "▁동원",
        -9.984811782836914
      ],
      [
        "▁동의",
        -10.260333061218262
      ],
      [
        "▁동작",
        -10.681447982788086
      ],
      [
        "▁동참",
        -10.704188346862793
      ],
      [
        "▁돼",
        -9.133668899536133
      ],
      [
        "▁됐다",
        -8.24383544921875
      ],
      [
        "▁되",
        -8.772493362426758
      ],
      [
        "▁되고",
        -9.551916122436523
      ],
      [
        "▁되는",
        -9.092011451721191
      ],
      [
        "▁되면",
        -9.963495254516602
      ],
      [
        "▁되어",
        -10.091289520263672
      ],
      [
        "▁되지",
        -9.925271987915039
      ],
      [
        "▁되찾",
        -10.951005935668945
      ],
      [
        "▁된",
        -8.701666831970215
      ],
      [
        "▁된다",
        -8.084676742553711
      ],
      [
        "▁될",
        -8.057073593139648
      ],
      [
        "▁두",
        -7.451368808746338
      ],
      [
        "▁두고",
        -9.261687278747559
      ],
      [
        "▁두드러",
        -11.143020629882812
      ],
      [
        "▁두산",
        -9.52815055847168
      ],
      [
        "▁둔",
        -10.010323524475098
      ],
      [
        "▁둔화",
        -10.379934310913086
      ],
      [
        "▁둘",
        -10.011394500732422
      ],
      [
        "▁둘러",
        -10.906822204589844
      ],
      [
        "▁둘러싼",
        -10.361008644104004
      ],
      [
        "▁둘째",
        -10.74034595489502
      ],
      [
        "▁뒤",
        -7.498178005218506
      ],
      [
        "▁뒤늦게",
        -10.839344024658203
      ],
      [
        "▁뒤집",
        -10.739175796508789
      ],
      [
        "▁뒷",
        -10.173060417175293
      ],
      [
        "▁뒷받침",
        -10.9055757522583
      ],
      [
        "▁드",
        -8.977469444274902
      ],
      [
        "▁드라마",
        -8.618796348571777
      ],
      [
        "▁드러나",
        -10.28685474395752
      ],
      [
        "▁드러난",
        -10.841113090515137
      ],
      [
        "▁드러났다",
        -9.753018379211426
      ],
      [
        "▁드러내",
        -10.327320098876953
      ],
      [
        "▁드러낸",
        -11.08954906463623
      ],
      [
        "▁드러냈다",
        -9.872505187988281
      ],
      [
        "▁드레스",
        -10.601271629333496
      ],
      [
        "▁득점",
        -9.754331588745117
      ],
      [
        "▁든다",
        -11.034662246704102
      ],
      [
        "▁듣",
        -10.224540710449219
      ],
      [
        "▁듣고",
        -10.243743896484375
      ],
      [
        "▁들",
        -9.080863952636719
      ],
      [
        "▁들고",
        -10.090211868286133
      ],
      [
        "▁들려",
        -10.30787467956543
      ],
      [
        "▁들어",
        -8.397698402404785
      ],
      [
        "▁들어가",
        -9.575547218322754
      ],
      [
        "▁들어간",
        -10.341483116149902
      ],
      [
        "▁들어갈",
        -10.981752395629883
      ],
      [
        "▁들어갔다",
        -10.501677513122559
      ],
      [
        "▁들어서",
        -10.356842994689941
      ],
      [
        "▁들어오",
        -10.694684982299805
      ],
      [
        "▁들었다",
        -10.068826675415039
      ],
      [
        "▁들여",
        -10.225103378295898
      ],
      [
        "▁듯",
        -9.111420631408691
      ],
      [
        "▁듯한",
        -10.570021629333496
      ],
      [
        "▁등",
        -6.055337905883789
      ],
      [
        "▁등과",
        -10.167522430419922
      ],
      [
        "▁등도",
        -10.289429664611816
      ],
      [
        "▁등록",
        -9.633809089660645
      ],
      [
        "▁등록금",
        -10.665220260620117
      ],
      [
        "▁등에",
        -8.715970993041992
      ],
      [
        "▁등에서",
        -9.999067306518555
      ],
      [
        "▁등으로",
        -8.791484832763672
      ],
      [
        "▁등은",
        -9.632609367370605
      ],
      [
        "▁등을",
        -7.591340065002441
      ],
      [
        "▁등의",
        -8.027070999145508
      ],
      [
        "▁등이",
        -8.264025688171387
      ],
      [
        "▁등이다",
        -10.324220657348633
      ],
      [
        "▁등장",
        -9.114089965820312
      ],
      [
        "▁등판",
        -9.96773624420166
      ],
      [
        "▁디",
        -9.180740356445312
      ],
      [
        "▁디자인",
        -9.510615348815918
      ],
      [
        "▁디지털",
        -10.069421768188477
      ],
      [
        "▁따",
        -9.019311904907227
      ],
      [
        "▁따뜻한",
        -10.745518684387207
      ],
      [
        "▁따라",
        -7.7074995040893555
      ],
      [
        "▁따라서",
        -10.018665313720703
      ],
      [
        "▁따로",
        -10.59033203125
      ],
      [
        "▁따르면",
        -7.830505847930908
      ],
      [
        "▁따른",
        -8.635175704956055
      ],
      [
        "▁딸",
        -9.111699104309082
      ],
      [
        "▁땅",
        -10.24677848815918
      ],
      [
        "▁땅볼",
        -10.77174186706543
      ],
      [
        "▁땅에",
        -10.55858039855957
      ],
      [
        "▁때",
        -7.488459587097168
      ],
      [
        "▁때까지",
        -10.308730125427246
      ],
      [
        "▁때는",
        -9.905831336975098
      ],
      [
        "▁때마다",
        -10.290107727050781
      ],
      [
        "▁때문",
        -9.100410461425781
      ],
      [
        "▁때문에",
        -7.905095100402832
      ],
      [
        "▁때문이다",
        -8.60953426361084
      ],
      [
        "▁때부터",
        -10.734909057617188
      ],
      [
        "▁떠",
        -9.538747787475586
      ],
      [
        "▁떠나",
        -9.721982955932617
      ],
      [
        "▁떠난",
        -10.691539764404297
      ],
      [
        "▁떠오르",
        -11.103412628173828
      ],
      [
        "▁떨",
        -10.350210189819336
      ],
      [
        "▁떨어져",
        -10.550824165344238
      ],
      [
        "▁떨어졌다",
        -10.328402519226074
      ],
      [
        "▁떨어지",
        -9.837708473205566
      ],
      [
        "▁떨어진",
        -9.883686065673828
      ],
      [
        "▁또",
        -7.252287864685059
      ],
      [
        "▁또는",
        -9.283687591552734
      ],
      [
        "▁또다시",
        -10.677778244018555
      ],
      [
        "▁또한",
        -8.313760757446289
      ],
      [
        "▁똑같",
        -10.523160934448242
      ],
      [
        "▁뚜렷",
        -10.732305526733398
      ],
      [
        "▁뛰",
        -9.678254127502441
      ],
      [
        "▁뛰어",
        -9.721628189086914
      ],
      [
        "▁뛰어난",
        -10.314590454101562
      ],
      [
        "▁뛰어넘",
        -11.098447799682617
      ],
      [
        "▁뜨거운",
        -10.198956489562988
      ],
      [
        "▁뜻",
        -9.44678020477295
      ],
      [
        "▁뜻을",
        -9.974891662597656
      ],
      [
        "▁띠고",
        -10.67653751373291
      ],
      [
        "▁라",
        -9.293956756591797
      ],
      [
        "▁라디오",
        -10.423909187316895
      ],
      [
        "▁라이벌",
        -11.073366165161133
      ],
      [
        "▁라이브",
        -10.616456031799316
      ],
      [
        "▁라인업",
        -11.101022720336914
      ],
      [
        "▁랭킹",
        -10.794878005981445
      ],
      [
        "▁러시아",
        -9.436628341674805
      ],
      [
        "▁런던",
        -10.465865135192871
      ],
      [
        "▁런던올림픽",
        -11.02999210357666
      ],
      [
        "▁레",
        -9.105782508850098
      ],
      [
        "▁레드카펫",
        -10.791948318481445
      ],
      [
        "▁레알",
        -10.84842586517334
      ],
      [
        "▁레이",
        -9.579296112060547
      ],
      [
        "▁레전드",
        -11.10219669342041
      ],
      [
        "▁로그인",
        -10.746387481689453
      ],
      [
        "▁로비",
        -10.826091766357422
      ],
      [
        "▁로이킴",
        -10.560225486755371
      ],
      [
        "▁로켓",
        -10.857467651367188
      ],
      [
        "▁롯데",
        -9.005636215209961
      ],
      [
        "▁롯데마트",
        -11.160622596740723
      ],
      [
        "▁루",
        -9.727625846862793
      ],
      [
        "▁루머",
        -10.441511154174805
      ],
      [
        "▁류",
        -9.282687187194824
      ],
      [
        "▁류현진",
        -9.477474212646484
      ],
      [
        "▁류현진은",
        -10.002821922302246
      ],
      [
        "▁리",
        -8.40470027923584
      ],
      [
        "▁리그",
        -9.93471908569336
      ],
      [
        "▁리더",
        -10.633082389831543
      ],
      [
        "▁리더십",
        -10.901914596557617
      ],
      [
        "▁리베이트",
        -11.020289421081543
      ],
      [
        "▁리스크",
        -10.371252059936523
      ],
      [
        "▁리포트",
        -9.97847843170166
      ],
      [
        "▁마",
        -7.600167751312256
      ],
      [
        "▁마감",
        -9.860478401184082
      ],
      [
        "▁마감했다",
        -10.221954345703125
      ],
      [
        "▁마드리드",
        -10.88489818572998
      ],
      [
        "▁마련",
        -8.381335258483887
      ],
      [
        "▁마련했다",
        -10.618742942810059
      ],
      [
        "▁마리",
        -10.435032844543457
      ],
      [
        "▁마무리",
        -9.241026878356934
      ],
      [
        "▁마운드",
        -10.419325828552246
      ],
      [
        "▁마을",
        -10.078778266906738
      ],
      [
        "▁마음",
        -8.949560165405273
      ],
      [
        "▁마음을",
        -9.625226020812988
      ],
      [
        "▁마지막",
        -9.02879810333252
      ],
      [
        "▁마지막으로",
        -10.652722358703613
      ],
      [
        "▁마찬가지",
        -10.037862777709961
      ],
      [
        "▁마쳤다",
        -9.866790771484375
      ],
      [
        "▁마치",
        -10.19741153717041
      ],
      [
        "▁마치고",
        -10.356392860412598
      ],
      [
        "▁마친",
        -10.041428565979004
      ],
      [
        "▁마케팅",
        -9.672662734985352
      ],
      [
        "▁막",
        -8.587162971496582
      ],
      [
        "▁막기",
        -10.598490715026855
      ],
      [
        "▁막아",
        -10.666987419128418
      ],
      [
        "▁막판",
        -10.828971862792969
      ],
      [
        "▁만",
        -8.372570037841797
      ],
      [
        "▁만기",
        -9.958248138427734
      ],
      [
        "▁만나",
        -8.8795804977417
      ],
      [
        "▁만난",
        -9.923441886901855
      ],
      [
        "▁만날",
        -10.781067848205566
      ],
      [
        "▁만남",
        -10.1728515625
      ],
      [
        "▁만났다",
        -10.870838165283203
      ],
      [
        "▁만드는",
        -9.743537902832031
      ],
      [
        "▁만든",
        -9.392340660095215
      ],
      [
        "▁만들",
        -9.431310653686523
      ],
      [
        "▁만들고",
        -10.554177284240723
      ],
      [
        "▁만들기",
        -10.264823913574219
      ],
      [
        "▁만들어",
        -8.797645568847656
      ],
      [
        "▁만들었다",
        -9.942924499511719
      ],
      [
        "▁만약",
        -10.71301555633545
      ],
      [
        "▁만에",
        -8.548738479614258
      ],
      [
        "▁만족",
        -9.8066987991333
      ],
      [
        "▁만큼",
        -8.499789237976074
      ],
      [
        "▁만한",
        -10.478816032409668
      ],
      [
        "▁많고",
        -10.99285888671875
      ],
      [
        "▁많다",
        -9.431058883666992
      ],
      [
        "▁많아",
        -9.860430717468262
      ],
      [
        "▁많았",
        -10.241952896118164
      ],
      [
        "▁많았다",
        -10.03817081451416
      ],
      [
        "▁많은",
        -8.074311256408691
      ],
      [
        "▁많이",
        -8.35345458984375
      ],
      [
        "▁많지",
        -10.798125267028809
      ],
      [
        "▁말",
        -7.360362529754639
      ],
      [
        "▁말까지",
        -10.443879127502441
      ],
      [
        "▁말레이시아",
        -11.156009674072266
      ],
      [
        "▁말씀",
        -10.209771156311035
      ],
      [
        "▁말을",
        -9.568668365478516
      ],
      [
        "▁말이",
        -10.1146821975708
      ],
      [
        "▁말한다",
        -10.513468742370605
      ],
      [
        "▁말해",
        -9.90845012664795
      ],
      [
        "▁말했다",
        -6.976611137390137
      ],
      [
        "▁맛",
        -9.632380485534668
      ],
      [
        "▁망",
        -9.887311935424805
      ],
      [
        "▁망명",
        -10.769570350646973
      ],
      [
        "▁맞",
        -8.238526344299316
      ],
      [
        "▁맞는",
        -9.766340255737305
      ],
      [
        "▁맞대결",
        -10.59911823272705
      ],
      [
        "▁맞서",
        -10.606293678283691
      ],
      [
        "▁맞아",
        -9.462160110473633
      ],
      [
        "▁맞았다",
        -10.9552583694458
      ],
      [
        "▁맞추",
        -10.362350463867188
      ],
      [
        "▁맞춘",
        -10.865023612976074
      ],
      [
        "▁맞춤형",
        -10.56558609008789
      ],
      [
        "▁맞춰",
        -9.708468437194824
      ],
      [
        "▁맡",
        -9.416862487792969
      ],
      [
        "▁맡고",
        -10.550515174865723
      ],
      [
        "▁맡아",
        -10.018181800842285
      ],
      [
        "▁맡았",
        -10.895028114318848
      ],
      [
        "▁맡았다",
        -10.335559844970703
      ],
      [
        "▁맡은",
        -10.080819129943848
      ],
      [
        "▁매",
        -8.299920082092285
      ],
      [
        "▁매각",
        -9.555463790893555
      ],
      [
        "▁매년",
        -9.763051986694336
      ],
      [
        "▁매달",
        -10.590925216674805
      ],
      [
        "▁매도",
        -9.983694076538086
      ],
      [
        "▁매력",
        -9.67538833618164
      ],
      [
        "▁매력을",
        -10.211037635803223
      ],
      [
        "▁매매",
        -9.79720401763916
      ],
      [
        "▁매수",
        -9.574679374694824
      ],
      [
        "▁매우",
        -9.445032119750977
      ],
      [
        "▁매일",
        -10.00914478302002
      ],
      [
        "▁매입",
        -10.180533409118652
      ],
      [
        "▁매장",
        -9.919392585754395
      ],
      [
        "▁매주",
        -10.380996704101562
      ],
      [
        "▁매체",
        -10.074143409729004
      ],
      [
        "▁매출",
        -8.7523193359375
      ],
      [
        "▁매출액",
        -9.498944282531738
      ],
      [
        "▁매출이",
        -10.404433250427246
      ],
      [
        "▁맨",
        -10.191718101501465
      ],
      [
        "▁맨유",
        -10.857251167297363
      ],
      [
        "▁맺",
        -9.6561279296875
      ],
      [
        "▁머",
        -10.054738998413086
      ],
      [
        "▁머리",
        -9.58563232421875
      ],
      [
        "▁머물",
        -10.237836837768555
      ],
      [
        "▁먹",
        -8.89398193359375
      ],
      [
        "▁먹고",
        -10.538762092590332
      ],
      [
        "▁먼저",
        -9.069174766540527
      ],
      [
        "▁멀티",
        -10.72407054901123
      ],
      [
        "▁멀티미디어",
        -10.724644660949707
      ],
      [
        "▁멋진",
        -10.861330032348633
      ],
      [
        "▁메",
        -8.767276763916016
      ],
      [
        "▁메뉴",
        -10.715410232543945
      ],
      [
        "▁메시지",
        -10.765830993652344
      ],
      [
        "▁메시지를",
        -10.631019592285156
      ],
      [
        "▁메이저",
        -10.743267059326172
      ],
      [
        "▁메이저리그",
        -10.103238105773926
      ],
      [
        "▁메이크업",
        -11.143635749816895
      ],
      [
        "▁메인",
        -10.522733688354492
      ],
      [
        "▁멕시코",
        -11.09714126586914
      ],
      [
        "▁멘토",
        -10.859360694885254
      ],
      [
        "▁멜로",
        -10.924744606018066
      ],
      [
        "▁멤버",
        -9.43301010131836
      ],
      [
        "▁멤버들",
        -9.659128189086914
      ],
      [
        "▁면",
        -9.34692096710205
      ],
      [
        "▁면담",
        -10.873478889465332
      ],
      [
        "▁면모를",
        -11.10606575012207
      ],
      [
        "▁면접",
        -10.758728981018066
      ],
      [
        "▁면제",
        -10.724343299865723
      ],
      [
        "▁명",
        -8.349067687988281
      ],
      [
        "▁명단",
        -10.22819709777832
      ],
      [
        "▁명령",
        -10.638733863830566
      ],
      [
        "▁명예",
        -10.103838920593262
      ],
      [
        "▁명의",
        -9.767426490783691
      ],
      [
        "▁명이",
        -10.31165599822998
      ],
      [
        "▁명칭",
        -10.792773246765137
      ],
      [
        "▁명품",
        -10.498295783996582
      ],
      [
        "▁명확",
        -10.471665382385254
      ],
      [
        "▁몇",
        -9.542547225952148
      ],
      [
        "▁모",
        -7.717813014984131
      ],
      [
        "▁모니터링",
        -10.975118637084961
      ],
      [
        "▁모델",
        -9.0626220703125
      ],
      [
        "▁모두",
        -7.794291973114014
      ],
      [
        "▁모든",
        -8.450567245483398
      ],
      [
        "▁모르",
        -9.729949951171875
      ],
      [
        "▁모르겠다",
        -10.99666690826416
      ],
      [
        "▁모른다",
        -10.813310623168945
      ],
      [
        "▁모멘텀",
        -11.121992111206055
      ],
      [
        "▁모바일",
        -8.900866508483887
      ],
      [
        "▁모비스",
        -11.004204750061035
      ],
      [
        "▁모색",
        -10.575947761535645
      ],
      [
        "▁모습",
        -8.988311767578125
      ],
      [
        "▁모습으로",
        -10.368657112121582
      ],
      [
        "▁모습을",
        -8.671747207641602
      ],
      [
        "▁모습이",
        -9.1679048538208
      ],
      [
        "▁모습이다",
        -10.561450958251953
      ],
      [
        "▁모아",
        -9.944012641906738
      ],
      [
        "▁모았다",
        -10.264105796813965
      ],
      [
        "▁모양",
        -10.357096672058105
      ],
      [
        "▁모여",
        -10.536247253417969
      ],
      [
        "▁모으고",
        -10.284555435180664
      ],
      [
        "▁모자",
        -10.668192863464355
      ],
      [
        "▁모집",
        -9.663824081420898
      ],
      [
        "▁목",
        -9.285409927368164
      ],
      [
        "▁목격",
        -10.649877548217773
      ],
      [
        "▁목동",
        -10.878568649291992
      ],
      [
        "▁목록",
        -10.927024841308594
      ],
      [
        "▁목사",
        -10.697599411010742
      ],
      [
        "▁목소리",
        -9.605021476745605
      ],
      [
        "▁목소리가",
        -10.104694366455078
      ],
      [
        "▁목숨",
        -10.417448997497559
      ],
      [
        "▁목적",
        -9.977118492126465
      ],
      [
        "▁목적으로",
        -10.636351585388184
      ],
      [
        "▁목표",
        -9.18989086151123
      ],
      [
        "▁목표로",
        -10.305851936340332
      ],
      [
        "▁목표주가",
        -10.818215370178223
      ],
      [
        "▁몰",
        -8.885661125183105
      ],
      [
        "▁몰려",
        -10.736980438232422
      ],
      [
        "▁몰아",
        -10.147998809814453
      ],
      [
        "▁몸",
        -8.859322547912598
      ],
      [
        "▁몸매",
        -9.617958068847656
      ],
      [
        "▁못",
        -8.20840835571289
      ],
      [
        "▁못하고",
        -9.450084686279297
      ],
      [
        "▁못하는",
        -9.995706558227539
      ],
      [
        "▁못한",
        -9.181943893432617
      ],
      [
        "▁못한다",
        -10.753071784973145
      ],
      [
        "▁못할",
        -10.436781883239746
      ],
      [
        "▁못해",
        -9.95835018157959
      ],
      [
        "▁못했다",
        -8.908679008483887
      ],
      [
        "▁묘",
        -10.39845085144043
      ],
      [
        "▁무",
        -7.448507785797119
      ],
      [
        "▁무게",
        -10.427648544311523
      ],
      [
        "▁무기",
        -10.04167652130127
      ],
      [
        "▁무대",
        -9.389464378356934
      ],
      [
        "▁무대를",
        -9.972758293151855
      ],
      [
        "▁무대에",
        -10.265374183654785
      ],
      [
        "▁무더위",
        -11.190802574157715
      ],
      [
        "▁무려",
        -10.13358211517334
      ],
      [
        "▁무료",
        -9.916830062866211
      ],
      [
        "▁무료로",
        -10.696300506591797
      ],
      [
        "▁무르시",
        -10.123420715332031
      ],
      [
        "▁무릎",
        -10.785889625549316
      ],
      [
        "▁무리",
        -10.253393173217773
      ],
      [
        "▁무산",
        -10.651119232177734
      ],
      [
        "▁무상",
        -10.4747314453125
      ],
      [
        "▁무슨",
        -10.485033988952637
      ],
      [
        "▁무승부",
        -11.048384666442871
      ],
      [
        "▁무실점",
        -10.98996639251709
      ],
      [
        "▁무엇보다",
        -10.246321678161621
      ],
      [
        "▁무역",
        -10.213475227355957
      ],
      [
        "▁무이자",
        -10.576361656188965
      ],
      [
        "▁무제한",
        -11.074191093444824
      ],
      [
        "▁무조건",
        -10.95269775390625
      ],
      [
        "▁무죄",
        -10.5725679397583
      ],
      [
        "▁묶",
        -10.481717109680176
      ],
      [
        "▁문",
        -8.250242233276367
      ],
      [
        "▁문서",
        -10.683117866516113
      ],
      [
        "▁문의",
        -10.185272216796875
      ],
      [
        "▁문자",
        -10.579527854919434
      ],
      [
        "▁문재인",
        -10.517860412597656
      ],
      [
        "▁문제",
        -8.454814910888672
      ],
      [
        "▁문제가",
        -9.08566951751709
      ],
      [
        "▁문제는",
        -9.835646629333496
      ],
      [
        "▁문제로",
        -10.342488288879395
      ],
      [
        "▁문제를",
        -9.331650733947754
      ],
      [
        "▁문제에",
        -10.397764205932617
      ],
      [
        "▁문제점",
        -10.48050308227539
      ],
      [
        "▁문화",
        -8.809988975524902
      ],
      [
        "▁문화체육관광부",
        -11.182221412658691
      ],
      [
        "▁묻",
        -9.541731834411621
      ],
      [
        "▁물",
        -8.250669479370117
      ],
      [
        "▁물가",
        -10.219402313232422
      ],
      [
        "▁물건",
        -10.68366813659668
      ],
      [
        "▁물놀이",
        -11.1900634765625
      ],
      [
        "▁물량",
        -9.850385665893555
      ],
      [
        "▁물론",
        -8.679240226745605
      ],
      [
        "▁물류",
        -10.771262168884277
      ],
      [
        "▁물리",
        -10.556087493896484
      ],
      [
        "▁물어",
        -10.765079498291016
      ],
      [
        "▁물품",
        -11.004776954650879
      ],
      [
        "▁뭐",
        -10.172335624694824
      ],
      [
        "▁뭔가",
        -11.176871299743652
      ],
      [
        "▁뮤지컬",
        -10.023831367492676
      ],
      [
        "▁뮤직비디오",
        -10.163215637207031
      ],
      [
        "▁미",
        -7.472012519836426
      ],
      [
        "▁미국",
        -7.4294586181640625
      ],
      [
        "▁미국의",
        -9.624523162841797
      ],
      [
        "▁미니",
        -10.024720191955566
      ],
      [
        "▁미드필더",
        -10.96015739440918
      ],
      [
        "▁미디어",
        -9.8788480758667
      ],
      [
        "▁미래",
        -9.13869571685791
      ],
      [
        "▁미래부",
        -10.807514190673828
      ],
      [
        "▁미래창조과학부",
        -10.359698295593262
      ],
      [
        "▁미뤄",
        -10.944531440734863
      ],
      [
        "▁미리",
        -10.166728973388672
      ],
      [
        "▁미만",
        -10.051044464111328
      ],
      [
        "▁미모",
        -10.261502265930176
      ],
      [
        "▁미사일",
        -10.85835075378418
      ],
      [
        "▁미소",
        -10.022622108459473
      ],
      [
        "▁미얀마",
        -11.122618675231934
      ],
      [
        "▁미치는",
        -10.675216674804688
      ],
      [
        "▁미치지",
        -11.016485214233398
      ],
      [
        "▁미칠",
        -10.827643394470215
      ],
      [
        "▁미투데이",
        -11.047380447387695
      ],
      [
        "▁민",
        -8.651464462280273
      ],
      [
        "▁민간",
        -9.394883155822754
      ],
      [
        "▁민낯",
        -11.189745903015137
      ],
      [
        "▁민생",
        -10.388724327087402
      ],
      [
        "▁민원",
        -10.147578239440918
      ],
      [
        "▁민족",
        -10.231131553649902
      ],
      [
        "▁민주",
        -9.833173751831055
      ],
      [
        "▁민주당",
        -8.593111038208008
      ],
      [
        "▁민주당은",
        -10.067241668701172
      ],
      [
        "▁민주주의",
        -10.739082336425781
      ],
      [
        "▁민주통합당",
        -10.021974563598633
      ],
      [
        "▁믿고",
        -11.151856422424316
      ],
      [
        "▁밀",
        -9.004971504211426
      ],
      [
        "▁밀려",
        -10.729622840881348
      ],
      [
        "▁밀어",
        -10.703856468200684
      ],
      [
        "▁및",
        -7.213193893432617
      ],
      [
        "▁밑",
        -9.831084251403809
      ],
      [
        "▁바",
        -7.687136650085449
      ],
      [
        "▁바꾸",
        -10.17683219909668
      ],
      [
        "▁바꿔",
        -10.407386779785156
      ],
      [
        "▁바뀌",
        -10.111398696899414
      ],
      [
        "▁바뀐",
        -11.019913673400879
      ],
      [
        "▁바다",
        -10.10167121887207
      ],
      [
        "▁바닥",
        -10.478350639343262
      ],
      [
        "▁바라",
        -9.82266616821289
      ],
      [
        "▁바란다",
        -9.741564750671387
      ],
      [
        "▁바람",
        -9.473024368286133
      ],
      [
        "▁바로",
        -9.014100074768066
      ],
      [
        "▁바이러스",
        -10.921703338623047
      ],
      [
        "▁바탕으로",
        -9.716754913330078
      ],
      [
        "▁박",
        -6.861958026885986
      ],
      [
        "▁박근혜",
        -8.687195777893066
      ],
      [
        "▁박명수",
        -11.078715324401855
      ],
      [
        "▁박수",
        -10.457025527954102
      ],
      [
        "▁박인비",
        -10.174796104431152
      ],
      [
        "▁박지성",
        -10.128030776977539
      ],
      [
        "▁밖에",
        -9.689178466796875
      ],
      [
        "▁밖으로",
        -11.094388961791992
      ],
      [
        "▁반",
        -7.973834991455078
      ],
      [
        "▁반대",
        -8.955559730529785
      ],
      [
        "▁반도체",
        -10.262986183166504
      ],
      [
        "▁반드시",
        -9.857933044433594
      ],
      [
        "▁반등",
        -10.3428316116333
      ],
      [
        "▁반면",
        -8.681946754455566
      ],
      [
        "▁반박했다",
        -11.091395378112793
      ],
      [
        "▁반발",
        -9.780447006225586
      ],
      [
        "▁반복",
        -10.261871337890625
      ],
      [
        "▁반영",
        -9.144198417663574
      ],
      [
        "▁반응",
        -9.847869873046875
      ],
      [
        "▁반응을",
        -8.718003273010254
      ],
      [
        "▁반전",
        -10.339371681213379
      ],
      [
        "▁받",
        -9.552842140197754
      ],
      [
        "▁받게",
        -10.41799259185791
      ],
      [
        "▁받고",
        -8.371959686279297
      ],
      [
        "▁받기",
        -10.462273597717285
      ],
      [
        "▁받는",
        -9.488127708435059
      ],
      [
        "▁받는다",
        -10.363871574401855
      ],
      [
        "▁받아",
        -8.678685188293457
      ],
      [
        "▁받아들여",
        -10.931723594665527
      ],
      [
        "▁받아들이",
        -10.74441146850586
      ],
      [
        "▁받았",
        -9.662039756774902
      ],
      [
        "▁받았다",
        -8.76685619354248
      ],
      [
        "▁받으며",
        -10.970418930053711
      ],
      [
        "▁받은",
        -8.647098541259766
      ],
      [
        "▁받을",
        -9.280975341796875
      ],
      [
        "▁받지",
        -10.041581153869629
      ],
      [
        "▁발",
        -7.82983922958374
      ],
      [
        "▁발견",
        -8.993008613586426
      ],
      [
        "▁발견됐다",
        -10.547679901123047
      ],
      [
        "▁발굴",
        -9.863898277282715
      ],
      [
        "▁발급",
        -10.496233940124512
      ],
      [
        "▁발매",
        -10.246719360351562
      ],
      [
        "▁발목",
        -10.78010082244873
      ],
      [
        "▁발사",
        -9.689207077026367
      ],
      [
        "▁발생",
        -8.715826034545898
      ],
      [
        "▁발생한",
        -9.696496963500977
      ],
      [
        "▁발생할",
        -10.7093505859375
      ],
      [
        "▁발생했다",
        -10.235662460327148
      ],
      [
        "▁발언",
        -9.175787925720215
      ],
      [
        "▁발언을",
        -10.445068359375
      ],
      [
        "▁발전",
        -8.806485176086426
      ],
      [
        "▁발탁",
        -10.632706642150879
      ],
      [
        "▁발표",
        -8.322833061218262
      ],
      [
        "▁발표한",
        -9.53274154663086
      ],
      [
        "▁발표했다",
        -9.519448280334473
      ],
      [
        "▁발행",
        -9.295965194702148
      ],
      [
        "▁발효",
        -10.968389511108398
      ],
      [
        "▁발휘",
        -10.199614524841309
      ],
      [
        "▁밝은",
        -11.110782623291016
      ],
      [
        "▁밝혀",
        -9.477818489074707
      ],
      [
        "▁밝혀졌다",
        -10.88820743560791
      ],
      [
        "▁밝혔",
        -10.848966598510742
      ],
      [
        "▁밝혔다",
        -7.022022724151611
      ],
      [
        "▁밝혔습니다",
        -10.198136329650879
      ],
      [
        "▁밝히",
        -9.5961332321167
      ],
      [
        "▁밝힌",
        -9.6721773147583
      ],
      [
        "▁밤",
        -9.122247695922852
      ],
      [
        "▁밥",
        -10.361083984375
      ],
      [
        "▁방",
        -8.033355712890625
      ],
      [
        "▁방문",
        -8.768157958984375
      ],
      [
        "▁방문해",
        -10.146951675415039
      ],
      [
        "▁방법",
        -9.13605785369873
      ],
      [
        "▁방북",
        -10.72816276550293
      ],
      [
        "▁방송",
        -8.046932220458984
      ],
      [
        "▁방송되는",
        -10.723979949951172
      ],
      [
        "▁방송된",
        -8.750911712646484
      ],
      [
        "▁방송된다",
        -10.254076957702637
      ],
      [
        "▁방송에서",
        -9.63685131072998
      ],
      [
        "▁방식",
        -9.401887893676758
      ],
      [
        "▁방식으로",
        -9.939627647399902
      ],
      [
        "▁방안",
        -9.199600219726562
      ],
      [
        "▁방안을",
        -9.475537300109863
      ],
      [
        "▁방지",
        -10.040766716003418
      ],
      [
        "▁방침",
        -9.736296653747559
      ],
      [
        "▁방침이다",
        -9.380999565124512
      ],
      [
        "▁방통위",
        -10.874892234802246
      ],
      [
        "▁방향",
        -9.762409210205078
      ],
      [
        "▁방향으로",
        -10.733319282531738
      ],
      [
        "▁배",
        -7.870528221130371
      ],
      [
        "▁배경",
        -10.115694046020508
      ],
      [
        "▁배경으로",
        -10.720928192138672
      ],
      [
        "▁배당",
        -10.608610153198242
      ],
      [
        "▁배려",
        -10.514854431152344
      ],
      [
        "▁배우",
        -8.215960502624512
      ],
      [
        "▁배우들",
        -10.159507751464844
      ],
      [
        "▁배제",
        -10.371944427490234
      ],
      [
        "▁배출",
        -10.47973918914795
      ],
      [
        "▁배치",
        -9.911643981933594
      ],
      [
        "▁배터리",
        -10.813440322875977
      ],
      [
        "▁백",
        -8.595532417297363
      ],
      [
        "▁백악관",
        -10.867419242858887
      ],
      [
        "▁백지영",
        -11.110383987426758
      ],
      [
        "▁백화점",
        -10.408061981201172
      ],
      [
        "▁버",
        -8.984570503234863
      ],
      [
        "▁버냉키",
        -10.564420700073242
      ],
      [
        "▁버디",
        -10.91114616394043
      ],
      [
        "▁버스",
        -9.899273872375488
      ],
      [
        "▁버전",
        -10.676945686340332
      ],
      [
        "▁번",
        -8.511739730834961
      ],
      [
        "▁번째",
        -9.05501651763916
      ],
      [
        "▁벌",
        -8.982771873474121
      ],
      [
        "▁벌금",
        -10.41392993927002
      ],
      [
        "▁벌써",
        -10.66118335723877
      ],
      [
        "▁벌어지",
        -10.389823913574219
      ],
      [
        "▁벌어진",
        -10.593782424926758
      ],
      [
        "▁벌였다",
        -10.68643856048584
      ],
      [
        "▁벌이고",
        -10.442914009094238
      ],
      [
        "▁벌이는",
        -10.94644546508789
      ],
      [
        "▁벌인",
        -10.490813255310059
      ],
      [
        "▁범",
        -9.71827507019043
      ],
      [
        "▁범위",
        -10.163820266723633
      ],
      [
        "▁범죄",
        -9.58309555053711
      ],
      [
        "▁범행",
        -9.7319917678833
      ],
      [
        "▁법",
        -8.708719253540039
      ],
      [
        "▁법률",
        -9.751505851745605
      ],
      [
        "▁법무부",
        -10.632475852966309
      ],
      [
        "▁법안",
        -10.015482902526855
      ],
      [
        "▁법원",
        -9.493273735046387
      ],
      [
        "▁법인",
        -10.044622421264648
      ],
      [
        "▁법적",
        -10.268878936767578
      ],
      [
        "▁법정",
        -10.125497817993164
      ],
      [
        "▁법칙",
        -10.923807144165039
      ],
      [
        "▁벗",
        -9.923600196838379
      ],
      [
        "▁벗어나",
        -10.032647132873535
      ],
      [
        "▁베",
        -8.908550262451172
      ],
      [
        "▁베이징",
        -10.47209358215332
      ],
      [
        "▁베트남",
        -10.316155433654785
      ],
      [
        "▁벤",
        -9.951855659484863
      ],
      [
        "▁벤처",
        -10.492676734924316
      ],
      [
        "▁벽",
        -10.345348358154297
      ],
      [
        "▁변",
        -8.999903678894043
      ],
      [
        "▁변경",
        -9.544405937194824
      ],
      [
        "▁변동",
        -10.620285034179688
      ],
      [
        "▁변동성",
        -11.008378028869629
      ],
      [
        "▁변수",
        -10.771788597106934
      ],
      [
        "▁변신",
        -9.834303855895996
      ],
      [
        "▁변호사",
        -9.857254028320312
      ],
      [
        "▁변화",
        -9.236176490783691
      ],
      [
        "▁변화를",
        -10.48196792602539
      ],
      [
        "▁별",
        -9.11287784576416
      ],
      [
        "▁별도로",
        -10.766034126281738
      ],
      [
        "▁별도의",
        -10.843017578125
      ],
      [
        "▁병",
        -9.371500968933105
      ],
      [
        "▁병역",
        -11.002104759216309
      ],
      [
        "▁병원",
        -9.146595001220703
      ],
      [
        "▁병행",
        -10.889906883239746
      ],
      [
        "▁보",
        -7.268169403076172
      ],
      [
        "▁보건",
        -10.492549896240234
      ],
      [
        "▁보건복지부",
        -10.899802207946777
      ],
      [
        "▁보고",
        -8.286273956298828
      ],
      [
        "▁보고서",
        -9.800054550170898
      ],
      [
        "▁보관",
        -10.179950714111328
      ],
      [
        "▁보급",
        -10.644484519958496
      ],
      [
        "▁보기",
        -9.903854370117188
      ],
      [
        "▁보내",
        -9.24263858795166
      ],
      [
        "▁보낸",
        -10.35404109954834
      ],
      [
        "▁보냈다",
        -10.433878898620605
      ],
      [
        "▁보는",
        -9.29992961883545
      ],
      [
        "▁보니",
        -9.725972175598145
      ],
      [
        "▁보다",
        -9.490713119506836
      ],
      [
        "▁보도",
        -9.2988920211792
      ],
      [
        "▁보도자료",
        -10.644042015075684
      ],
      [
        "▁보도했다",
        -9.479658126831055
      ],
      [
        "▁보면",
        -9.016562461853027
      ],
      [
        "▁보상",
        -10.116623878479004
      ],
      [
        "▁보수",
        -9.97288990020752
      ],
      [
        "▁보안",
        -9.681323051452637
      ],
      [
        "▁보여",
        -9.41411304473877
      ],
      [
        "▁보여주",
        -9.462607383728027
      ],
      [
        "▁보여준",
        -10.371854782104492
      ],
      [
        "▁보여줄",
        -11.068968772888184
      ],
      [
        "▁보여줬다",
        -10.90334701538086
      ],
      [
        "▁보였다",
        -8.362746238708496
      ],
      [
        "▁보완",
        -10.34364128112793
      ],
      [
        "▁보유",
        -9.916038513183594
      ],
      [
        "▁보유하고",
        -10.56546401977539
      ],
      [
        "▁보유한",
        -10.45281982421875
      ],
      [
        "▁보육",
        -10.708027839660645
      ],
      [
        "▁보이",
        -9.75328254699707
      ],
      [
        "▁보이고",
        -9.313124656677246
      ],
      [
        "▁보이는",
        -9.815535545349121
      ],
      [
        "▁보이며",
        -10.74244499206543
      ],
      [
        "▁보이지",
        -10.352337837219238
      ],
      [
        "▁보인다",
        -8.355969429016113
      ],
      [
        "▁보장",
        -9.619811058044434
      ],
      [
        "▁보조금",
        -10.4765625
      ],
      [
        "▁보증",
        -10.411495208740234
      ],
      [
        "▁보통",
        -10.381326675415039
      ],
      [
        "▁보험",
        -9.42090892791748
      ],
      [
        "▁보험료",
        -10.62120246887207
      ],
      [
        "▁보험사",
        -10.668010711669922
      ],
      [
        "▁보호",
        -9.331849098205566
      ],
      [
        "▁복",
        -8.792580604553223
      ],
      [
        "▁복귀",
        -9.684006690979004
      ],
      [
        "▁복무",
        -10.633475303649902
      ],
      [
        "▁복수",
        -10.572736740112305
      ],
      [
        "▁복잡",
        -10.736034393310547
      ],
      [
        "▁복지",
        -9.395415306091309
      ],
      [
        "▁복합",
        -10.568082809448242
      ],
      [
        "▁본",
        -8.366246223449707
      ],
      [
        "▁본격",
        -10.412394523620605
      ],
      [
        "▁본격적으로",
        -10.407509803771973
      ],
      [
        "▁본격적인",
        -10.018143653869629
      ],
      [
        "▁본격화",
        -10.635598182678223
      ],
      [
        "▁본다",
        -10.039313316345215
      ],
      [
        "▁본사",
        -10.140235900878906
      ],
      [
        "▁본인",
        -9.7764892578125
      ],
      [
        "▁본회의",
        -10.522440910339355
      ],
      [
        "▁볼",
        -8.347661972045898
      ],
      [
        "▁봉",
        -9.441521644592285
      ],
      [
        "▁봉사활동",
        -10.8828125
      ],
      [
        "▁봐",
        -10.060154914855957
      ],
      [
        "▁봤",
        -10.476630210876465
      ],
      [
        "▁봤다",
        -10.384943962097168
      ],
      [
        "▁부",
        -7.371647357940674
      ],
      [
        "▁부각",
        -10.568039894104004
      ],
      [
        "▁부과",
        -9.960140228271484
      ],
      [
        "▁부담",
        -9.18634033203125
      ],
      [
        "▁부담을",
        -10.261752128601074
      ],
      [
        "▁부담이",
        -10.337703704833984
      ],
      [
        "▁부당",
        -9.925447463989258
      ],
      [
        "▁부대",
        -10.452028274536133
      ],
      [
        "▁부동산",
        -9.116049766540527
      ],
      [
        "▁부르",
        -10.269927024841309
      ],
      [
        "▁부모",
        -10.100397109985352
      ],
      [
        "▁부모님",
        -11.027129173278809
      ],
      [
        "▁부문",
        -9.03896713256836
      ],
      [
        "▁부부",
        -9.732477188110352
      ],
      [
        "▁부분",
        -8.935346603393555
      ],
      [
        "▁부분이",
        -10.296317100524902
      ],
      [
        "▁부사장",
        -10.267842292785645
      ],
      [
        "▁부산",
        -8.519765853881836
      ],
      [
        "▁부산시",
        -10.666584968566895
      ],
      [
        "▁부상",
        -9.171954154968262
      ],
      [
        "▁부서",
        -10.568458557128906
      ],
      [
        "▁부실",
        -10.04659366607666
      ],
      [
        "▁부여",
        -10.107532501220703
      ],
      [
        "▁부위원장",
        -10.84776496887207
      ],
      [
        "▁부인",
        -9.631575584411621
      ],
      [
        "▁부작용",
        -10.720321655273438
      ],
      [
        "▁부정",
        -10.041937828063965
      ],
      [
        "▁부정적",
        -10.268790245056152
      ],
      [
        "▁부족",
        -9.492764472961426
      ],
      [
        "▁부족한",
        -10.614724159240723
      ],
      [
        "▁부지",
        -10.331793785095215
      ],
      [
        "▁부진",
        -9.245806694030762
      ],
      [
        "▁부채",
        -10.12435531616211
      ],
      [
        "▁부처",
        -9.482880592346191
      ],
      [
        "▁부총리",
        -10.832131385803223
      ],
      [
        "▁부탁",
        -10.277953147888184
      ],
      [
        "▁부품",
        -9.848048210144043
      ],
      [
        "▁부활",
        -10.476346969604492
      ],
      [
        "▁부회장",
        -9.91615104675293
      ],
      [
        "▁북",
        -9.187232971191406
      ],
      [
        "▁북미",
        -10.89780044555664
      ],
      [
        "▁북측",
        -10.123397827148438
      ],
      [
        "▁북한",
        -8.607353210449219
      ],
      [
        "▁북한의",
        -9.935371398925781
      ],
      [
        "▁북한이",
        -10.09653377532959
      ],
      [
        "▁분",
        -7.850693225860596
      ],
      [
        "▁분노",
        -10.49775218963623
      ],
      [
        "▁분당",
        -10.68387222290039
      ],
      [
        "▁분들",
        -10.319947242736816
      ],
      [
        "▁분류",
        -10.474187850952148
      ],
      [
        "▁분리",
        -10.225604057312012
      ],
      [
        "▁분명",
        -10.318310737609863
      ],
      [
        "▁분명히",
        -10.46493911743164
      ],
      [
        "▁분석",
        -8.691905975341797
      ],
      [
        "▁분석이다",
        -10.796850204467773
      ],
      [
        "▁분석했다",
        -9.92843246459961
      ],
      [
        "▁분야",
        -9.120245933532715
      ],
      [
        "▁분야에서",
        -10.417472839355469
      ],
      [
        "▁분양",
        -9.324447631835938
      ],
      [
        "▁분위기",
        -9.377952575683594
      ],
      [
        "▁분위기를",
        -10.081916809082031
      ],
      [
        "▁분쟁",
        -10.672656059265137
      ],
      [
        "▁불",
        -7.512138366699219
      ],
      [
        "▁불가능",
        -10.293744087219238
      ],
      [
        "▁불가피",
        -10.15779972076416
      ],
      [
        "▁불공정",
        -10.784367561340332
      ],
      [
        "▁불과",
        -9.72619915008545
      ],
      [
        "▁불과하다",
        -10.807271003723145
      ],
      [
        "▁불구속",
        -10.187910079956055
      ],
      [
        "▁불구하고",
        -9.740325927734375
      ],
      [
        "▁불러",
        -9.703990936279297
      ],
      [
        "▁불리는",
        -10.4392728805542
      ],
      [
        "▁불만을",
        -11.013530731201172
      ],
      [
        "▁불법",
        -9.055412292480469
      ],
      [
        "▁불안",
        -9.662168502807617
      ],
      [
        "▁불투명",
        -11.172815322875977
      ],
      [
        "▁불편",
        -9.864903450012207
      ],
      [
        "▁불확실성",
        -10.820900917053223
      ],
      [
        "▁불황",
        -10.691396713256836
      ],
      [
        "▁붕괴",
        -10.95115852355957
      ],
      [
        "▁붙",
        -9.608734130859375
      ],
      [
        "▁붙잡",
        -10.294960021972656
      ],
      [
        "▁브",
        -9.5038480758667
      ],
      [
        "▁브라운",
        -11.06094741821289
      ],
      [
        "▁브라질",
        -9.892062187194824
      ],
      [
        "▁브랜드",
        -9.052770614624023
      ],
      [
        "▁브리핑",
        -9.90937614440918
      ],
      [
        "▁블랙",
        -10.271994590759277
      ],
      [
        "▁블랙박스",
        -11.156984329223633
      ],
      [
        "▁블로그",
        -10.807917594909668
      ],
      [
        "▁블루",
        -10.370598793029785
      ],
      [
        "▁비",
        -7.398416519165039
      ],
      [
        "▁비가",
        -10.16350269317627
      ],
      [
        "▁비공개",
        -10.60183048248291
      ],
      [
        "▁비과세",
        -11.113798141479492
      ],
      [
        "▁비교",
        -9.876947402954102
      ],
      [
        "▁비교적",
        -10.753501892089844
      ],
      [
        "▁비교해",
        -10.548110961914062
      ],
      [
        "▁비난",
        -9.7554931640625
      ],
      [
        "▁비대위",
        -10.628096580505371
      ],
      [
        "▁비대위원장",
        -10.853973388671875
      ],
      [
        "▁비롯",
        -10.682256698608398
      ],
      [
        "▁비롯한",
        -9.527416229248047
      ],
      [
        "▁비롯해",
        -9.119535446166992
      ],
      [
        "▁비리",
        -10.181310653686523
      ],
      [
        "▁비밀",
        -9.847408294677734
      ],
      [
        "▁비상",
        -9.616950035095215
      ],
      [
        "▁비서실",
        -11.142265319824219
      ],
      [
        "▁비서실장",
        -10.991786003112793
      ],
      [
        "▁비스트",
        -10.811617851257324
      ],
      [
        "▁비슷",
        -10.521995544433594
      ],
      [
        "▁비슷한",
        -10.048757553100586
      ],
      [
        "▁비용",
        -9.243878364562988
      ],
      [
        "▁비율",
        -9.633752822875977
      ],
      [
        "▁비자금",
        -10.79038143157959
      ],
      [
        "▁비정규직",
        -10.242372512817383
      ],
      [
        "▁비중",
        -9.769876480102539
      ],
      [
        "▁비중이",
        -10.322895050048828
      ],
      [
        "▁비즈니스",
        -10.483322143554688
      ],
      [
        "▁비판",
        -9.401496887207031
      ],
      [
        "▁비판했다",
        -10.232629776000977
      ],
      [
        "▁비해",
        -9.028915405273438
      ],
      [
        "▁비행기",
        -10.572005271911621
      ],
      [
        "▁빅",
        -9.964417457580566
      ],
      [
        "▁빈",
        -9.744562149047852
      ],
      [
        "▁빈소",
        -10.907079696655273
      ],
      [
        "▁빌",
        -9.816317558288574
      ],
      [
        "▁빌려",
        -10.85933780670166
      ],
      [
        "▁빙",
        -10.435711860656738
      ],
      [
        "▁빚",
        -9.742457389831543
      ],
      [
        "▁빛",
        -9.867358207702637
      ],
      [
        "▁빠",
        -10.170397758483887
      ],
      [
        "▁빠르게",
        -10.363694190979004
      ],
      [
        "▁빠르고",
        -11.095781326293945
      ],
      [
        "▁빠른",
        -9.917160034179688
      ],
      [
        "▁빠져",
        -9.845961570739746
      ],
      [
        "▁빠졌다",
        -10.882864952087402
      ],
      [
        "▁빠지",
        -10.487517356872559
      ],
      [
        "▁빠진",
        -10.419711112976074
      ],
      [
        "▁빨",
        -10.22769832611084
      ],
      [
        "▁빨리",
        -10.105152130126953
      ],
      [
        "▁빼",
        -9.584922790527344
      ],
      [
        "▁빼앗",
        -10.748658180236816
      ],
      [
        "▁뽐내",
        -10.835824966430664
      ],
      [
        "▁뽐냈다",
        -11.120588302612305
      ],
      [
        "▁뽑",
        -9.850025177001953
      ],
      [
        "▁뽑아",
        -10.794631004333496
      ],
      [
        "▁뿌리",
        -10.664812088012695
      ],
      [
        "▁뿐",
        -9.141607284545898
      ],
      [
        "▁뿐만",
        -10.133206367492676
      ],
      [
        "▁사",
        -7.329372882843018
      ],
      [
        "▁사건",
        -8.622889518737793
      ],
      [
        "▁사건을",
        -10.31224250793457
      ],
      [
        "▁사고",
        -8.411043167114258
      ],
      [
        "▁사고가",
        -10.129870414733887
      ],
      [
        "▁사고로",
        -10.434643745422363
      ],
      [
        "▁사과",
        -9.662001609802246
      ],
      [
        "▁사기",
        -10.145529747009277
      ],
      [
        "▁사나이",
        -11.179245948791504
      ],
      [
        "▁사는",
        -10.215530395507812
      ],
      [
        "▁사라지",
        -11.092436790466309
      ],
      [
        "▁사람",
        -8.736822128295898
      ],
      [
        "▁사람들",
        -9.205738067626953
      ],
      [
        "▁사람들이",
        -9.88658618927002
      ],
      [
        "▁사람은",
        -9.649879455566406
      ],
      [
        "▁사람의",
        -10.160024642944336
      ],
      [
        "▁사람이",
        -9.259507179260254
      ],
      [
        "▁사랑",
        -8.760337829589844
      ],
      [
        "▁사랑을",
        -9.97695255279541
      ],
      [
        "▁사례",
        -9.421392440795898
      ],
      [
        "▁사로잡",
        -10.65665340423584
      ],
      [
        "▁사로잡았다",
        -11.052215576171875
      ],
      [
        "▁사망",
        -9.136947631835938
      ],
      [
        "▁사망자",
        -10.536280632019043
      ],
      [
        "▁사면",
        -10.22585391998291
      ],
      [
        "▁사명",
        -10.762003898620605
      ],
      [
        "▁사무",
        -10.031533241271973
      ],
      [
        "▁사무실",
        -10.281415939331055
      ],
      [
        "▁사무총장",
        -10.962024688720703
      ],
      [
        "▁사법",
        -10.55543041229248
      ],
      [
        "▁사상",
        -9.36745834350586
      ],
      [
        "▁사실",
        -8.915151596069336
      ],
      [
        "▁사실상",
        -9.531774520874023
      ],
      [
        "▁사실을",
        -9.303818702697754
      ],
      [
        "▁사실이",
        -9.580812454223633
      ],
      [
        "▁사안",
        -10.230266571044922
      ],
      [
        "▁사업",
        -7.779265403747559
      ],
      [
        "▁사업을",
        -9.687211990356445
      ],
      [
        "▁사업자",
        -10.47757339477539
      ],
      [
        "▁사연",
        -10.411380767822266
      ],
      [
        "▁사용",
        -8.310267448425293
      ],
      [
        "▁사용자",
        -10.003043174743652
      ],
      [
        "▁사용하는",
        -10.545049667358398
      ],
      [
        "▁사용할",
        -10.291727066040039
      ],
      [
        "▁사유",
        -10.12193775177002
      ],
      [
        "▁사이",
        -9.144782066345215
      ],
      [
        "▁사이버",
        -10.498933792114258
      ],
      [
        "▁사이에",
        -10.103986740112305
      ],
      [
        "▁사이에서",
        -10.354050636291504
      ],
      [
        "▁사이트",
        -9.710810661315918
      ],
      [
        "▁사장",
        -9.268012046813965
      ],
      [
        "▁사장은",
        -10.037215232849121
      ],
      [
        "▁사전",
        -9.367730140686035
      ],
      [
        "▁사정",
        -10.43674373626709
      ],
      [
        "▁사진",
        -7.878097057342529
      ],
      [
        "▁사진을",
        -9.129746437072754
      ],
      [
        "▁사진이",
        -10.169159889221191
      ],
      [
        "▁사태",
        -9.340544700622559
      ],
      [
        "▁사퇴",
        -9.887877464294434
      ],
      [
        "▁사항",
        -9.913725852966309
      ],
      [
        "▁사회",
        -8.614312171936035
      ],
      [
        "▁사회공헌",
        -10.990525245666504
      ],
      [
        "▁사회복지",
        -11.059940338134766
      ],
      [
        "▁사회적",
        -9.549874305725098
      ],
      [
        "▁사흘",
        -10.72004222869873
      ],
      [
        "▁삭감",
        -10.884814262390137
      ],
      [
        "▁삭제",
        -10.620028495788574
      ],
      [
        "▁산",
        -8.34505558013916
      ],
      [
        "▁산업",
        -8.905281066894531
      ],
      [
        "▁산하",
        -10.327627182006836
      ],
      [
        "▁살",
        -8.320464134216309
      ],
      [
        "▁살아",
        -9.323416709899902
      ],
      [
        "▁살인",
        -10.3236722946167
      ],
      [
        "▁살펴",
        -10.39156723022461
      ],
      [
        "▁살펴보면",
        -10.97557258605957
      ],
      [
        "▁살해",
        -10.159933090209961
      ],
      [
        "▁삶",
        -9.502902030944824
      ],
      [
        "▁삼",
        -8.751004219055176
      ],
      [
        "▁삼성",
        -8.406353950500488
      ],
      [
        "▁삼성생명",
        -10.924972534179688
      ],
      [
        "▁삼성전자",
        -8.841798782348633
      ],
      [
        "▁삼성전자는",
        -10.397024154663086
      ],
      [
        "▁삼성화재",
        -10.941079139709473
      ],
      [
        "▁삼진",
        -10.615160942077637
      ],
      [
        "▁삼청동",
        -10.933146476745605
      ],
      [
        "▁상",
        -7.3955464363098145
      ],
      [
        "▁상담",
        -10.015702247619629
      ],
      [
        "▁상당",
        -9.985641479492188
      ],
      [
        "▁상당수",
        -10.856661796569824
      ],
      [
        "▁상당의",
        -10.40962028503418
      ],
      [
        "▁상당한",
        -10.684711456298828
      ],
      [
        "▁상대",
        -9.094385147094727
      ],
      [
        "▁상대로",
        -9.15268325805664
      ],
      [
        "▁상대적으로",
        -10.123934745788574
      ],
      [
        "▁상무",
        -10.300507545471191
      ],
      [
        "▁상반기",
        -9.030972480773926
      ],
      [
        "▁상생",
        -10.624992370605469
      ],
      [
        "▁상승",
        -8.460236549377441
      ],
      [
        "▁상승세",
        -10.44246768951416
      ],
      [
        "▁상승세를",
        -10.252511978149414
      ],
      [
        "▁상승한",
        -10.276812553405762
      ],
      [
        "▁상승했다",
        -10.125629425048828
      ],
      [
        "▁상위",
        -9.767001152038574
      ],
      [
        "▁상임위",
        -11.110331535339355
      ],
      [
        "▁상장",
        -9.640290260314941
      ],
      [
        "▁상징",
        -10.419718742370605
      ],
      [
        "▁상처",
        -10.185906410217285
      ],
      [
        "▁상태",
        -8.949895858764648
      ],
      [
        "▁상태다",
        -9.912322044372559
      ],
      [
        "▁상태에서",
        -10.622010231018066
      ],
      [
        "▁상품",
        -8.747014045715332
      ],
      [
        "▁상하이",
        -10.87523365020752
      ],
      [
        "▁상한가",
        -11.062443733215332
      ],
      [
        "▁상향",
        -10.423118591308594
      ],
      [
        "▁상호",
        -10.418540954589844
      ],
      [
        "▁상환",
        -10.708701133728027
      ],
      [
        "▁상황",
        -9.03010368347168
      ],
      [
        "▁상황에",
        -10.319131851196289
      ],
      [
        "▁상황에서",
        -9.23432445526123
      ],
      [
        "▁상황을",
        -9.815302848815918
      ],
      [
        "▁상황이",
        -9.721000671386719
      ],
      [
        "▁상황이다",
        -9.949554443359375
      ],
      [
        "▁새",
        -8.107501029968262
      ],
      [
        "▁새누리당",
        -8.60688304901123
      ],
      [
        "▁새누리당은",
        -10.205387115478516
      ],
      [
        "▁새로",
        -10.033821105957031
      ],
      [
        "▁새로운",
        -8.509146690368652
      ],
      [
        "▁새롭게",
        -10.015775680541992
      ],
      [
        "▁새벽",
        -9.917704582214355
      ],
      [
        "▁새해",
        -9.730611801147461
      ],
      [
        "▁샌프란시스코",
        -9.783411026000977
      ],
      [
        "▁생",
        -8.419661521911621
      ],
      [
        "▁생각",
        -8.334735870361328
      ],
      [
        "▁생각을",
        -10.289599418640137
      ],
      [
        "▁생각이",
        -10.26931095123291
      ],
      [
        "▁생각한다",
        -9.649094581604004
      ],
      [
        "▁생각해",
        -10.590323448181152
      ],
      [
        "▁생기",
        -10.392324447631836
      ],
      [
        "▁생긴",
        -10.496516227722168
      ],
      [
        "▁생명",
        -10.121169090270996
      ],
      [
        "▁생방송",
        -10.672541618347168
      ],
      [
        "▁생산",
        -8.690332412719727
      ],
      [
        "▁생존",
        -10.352953910827637
      ],
      [
        "▁생태계",
        -11.000581741333008
      ],
      [
        "▁생활",
        -8.869573593139648
      ],
      [
        "▁서",
        -7.581714153289795
      ],
      [
        "▁서귀포",
        -10.963354110717773
      ],
      [
        "▁서로",
        -9.385973930358887
      ],
      [
        "▁서류",
        -10.465957641601562
      ],
      [
        "▁서민",
        -10.321691513061523
      ],
      [
        "▁서부",
        -10.601306915283203
      ],
      [
        "▁서비스",
        -8.52995777130127
      ],
      [
        "▁서비스를",
        -9.581318855285645
      ],
      [
        "▁서울",
        -7.353670597076416
      ],
      [
        "▁서울대",
        -10.267729759216309
      ],
      [
        "▁서울시",
        -9.018182754516602
      ],
      [
        "▁서울중앙지검",
        -10.7907133102417
      ],
      [
        "▁서울중앙지법",
        -11.175768852233887
      ],
      [
        "▁서초구",
        -11.144729614257812
      ],
      [
        "▁석",
        -9.74934196472168
      ],
      [
        "▁석유",
        -10.417218208312988
      ],
      [
        "▁선",
        -7.733261585235596
      ],
      [
        "▁선거",
        -9.072162628173828
      ],
      [
        "▁선고",
        -10.053821563720703
      ],
      [
        "▁선고받",
        -10.834650993347168
      ],
      [
        "▁선고했다",
        -10.852526664733887
      ],
      [
        "▁선두",
        -9.71340560913086
      ],
      [
        "▁선물",
        -9.105247497558594
      ],
      [
        "▁선박",
        -10.308340072631836
      ],
      [
        "▁선발",
        -8.674184799194336
      ],
      [
        "▁선발투수",
        -11.111397743225098
      ],
      [
        "▁선배",
        -10.263204574584961
      ],
      [
        "▁선보여",
        -10.857670783996582
      ],
      [
        "▁선보였다",
        -10.074797630310059
      ],
      [
        "▁선보이며",
        -10.952351570129395
      ],
      [
        "▁선보인",
        -10.768326759338379
      ],
      [
        "▁선보인다",
        -10.701557159423828
      ],
      [
        "▁선보일",
        -10.793404579162598
      ],
      [
        "▁선사",
        -10.169270515441895
      ],
      [
        "▁선생님",
        -10.888975143432617
      ],
      [
        "▁선수",
        -8.438925743103027
      ],
      [
        "▁선수가",
        -10.230859756469727
      ],
      [
        "▁선수단",
        -10.499602317810059
      ],
      [
        "▁선수들",
        -9.251394271850586
      ],
      [
        "▁선수들이",
        -10.106358528137207
      ],
      [
        "▁선언",
        -9.942926406860352
      ],
      [
        "▁선예",
        -10.693056106567383
      ],
      [
        "▁선임",
        -9.915389060974121
      ],
      [
        "▁선정",
        -8.850839614868164
      ],
      [
        "▁선정됐다",
        -10.606642723083496
      ],
      [
        "▁선정된",
        -10.759847640991211
      ],
      [
        "▁선제골",
        -11.105050086975098
      ],
      [
        "▁선진국",
        -10.497386932373047
      ],
      [
        "▁선출",
        -10.54197883605957
      ],
      [
        "▁선택",
        -8.929970741271973
      ],
      [
        "▁선호",
        -10.231963157653809
      ],
      [
        "▁설",
        -8.874043464660645
      ],
      [
        "▁설계",
        -9.864141464233398
      ],
      [
        "▁설득",
        -10.815787315368652
      ],
      [
        "▁설립",
        -9.297615051269531
      ],
      [
        "▁설명",
        -9.287616729736328
      ],
      [
        "▁설명이다",
        -10.294519424438477
      ],
      [
        "▁설명했다",
        -8.180543899536133
      ],
      [
        "▁설문조사",
        -10.887489318847656
      ],
      [
        "▁설비",
        -10.287187576293945
      ],
      [
        "▁설정",
        -9.935940742492676
      ],
      [
        "▁설치",
        -8.854558944702148
      ],
      [
        "▁섬",
        -9.866564750671387
      ],
      [
        "▁성",
        -7.811529159545898
      ],
      [
        "▁성격",
        -10.053342819213867
      ],
      [
        "▁성공",
        -8.611688613891602
      ],
      [
        "▁성공했다",
        -10.281091690063477
      ],
      [
        "▁성과",
        -9.8795804977417
      ],
      [
        "▁성과를",
        -10.096428871154785
      ],
      [
        "▁성남",
        -10.133310317993164
      ],
      [
        "▁성능",
        -10.308311462402344
      ],
      [
        "▁성동일",
        -11.026551246643066
      ],
      [
        "▁성매매",
        -10.534442901611328
      ],
      [
        "▁성명을",
        -10.861333847045898
      ],
      [
        "▁성장",
        -8.421175003051758
      ],
      [
        "▁성장률",
        -10.066609382629395
      ],
      [
        "▁성장세",
        -10.610008239746094
      ],
      [
        "▁성적",
        -9.304285049438477
      ],
      [
        "▁성추행",
        -10.906712532043457
      ],
      [
        "▁성폭력",
        -11.173948287963867
      ],
      [
        "▁성폭행",
        -10.034065246582031
      ],
      [
        "▁성향",
        -10.717450141906738
      ],
      [
        "▁성형",
        -10.345579147338867
      ],
      [
        "▁세",
        -7.72007417678833
      ],
      [
        "▁세계",
        -7.976639747619629
      ],
      [
        "▁세계적인",
        -10.578022956848145
      ],
      [
        "▁세금",
        -9.922515869140625
      ],
      [
        "▁세대",
        -10.429346084594727
      ],
      [
        "▁세력",
        -10.370180130004883
      ],
      [
        "▁세무조사",
        -10.82681941986084
      ],
      [
        "▁세미나",
        -10.990985870361328
      ],
      [
        "▁세부",
        -10.365005493164062
      ],
      [
        "▁세븐",
        -11.019314765930176
      ],
      [
        "▁세상",
        -10.123080253601074
      ],
      [
        "▁세상을",
        -10.188616752624512
      ],
      [
        "▁세우",
        -10.604752540588379
      ],
      [
        "▁세워",
        -10.76294231414795
      ],
      [
        "▁세웠다",
        -10.939908981323242
      ],
      [
        "▁세종",
        -10.603959083557129
      ],
      [
        "▁세종시",
        -10.564998626708984
      ],
      [
        "▁세트",
        -10.319374084472656
      ],
      [
        "▁섹시",
        -9.991540908813477
      ],
      [
        "▁셀카",
        -10.720337867736816
      ],
      [
        "▁셈이다",
        -9.822962760925293
      ],
      [
        "▁소",
        -7.485018730163574
      ],
      [
        "▁소감을",
        -10.166821479797363
      ],
      [
        "▁소개",
        -9.445852279663086
      ],
      [
        "▁소개했다",
        -10.579676628112793
      ],
      [
        "▁소녀",
        -10.4048433303833
      ],
      [
        "▁소녀시대",
        -9.758601188659668
      ],
      [
        "▁소득",
        -9.686288833618164
      ],
      [
        "▁소리",
        -9.920621871948242
      ],
      [
        "▁소방",
        -9.90132999420166
      ],
      [
        "▁소방당국",
        -10.999992370605469
      ],
      [
        "▁소비",
        -9.73175048828125
      ],
      [
        "▁소비자",
        -9.255508422851562
      ],
      [
        "▁소비자들",
        -10.42458438873291
      ],
      [
        "▁소설",
        -10.584857940673828
      ],
      [
        "▁소셜",
        -10.405838012695312
      ],
      [
        "▁소속",
        -9.118756294250488
      ],
      [
        "▁소속사",
        -9.433626174926758
      ],
      [
        "▁소송",
        -9.601738929748535
      ],
      [
        "▁소식에",
        -10.452437400817871
      ],
      [
        "▁소식을",
        -10.091264724731445
      ],
      [
        "▁소식통",
        -11.115614891052246
      ],
      [
        "▁소요",
        -10.734951972961426
      ],
      [
        "▁소유",
        -9.781768798828125
      ],
      [
        "▁소장",
        -10.553377151489258
      ],
      [
        "▁소재",
        -9.557977676391602
      ],
      [
        "▁소중한",
        -11.152502059936523
      ],
      [
        "▁소지섭",
        -11.005030632019043
      ],
      [
        "▁소집",
        -10.841736793518066
      ],
      [
        "▁소통",
        -9.822856903076172
      ],
      [
        "▁소폭",
        -10.138514518737793
      ],
      [
        "▁소프트웨어",
        -10.72481918334961
      ],
      [
        "▁소형",
        -10.6641206741333
      ],
      [
        "▁소화",
        -9.812734603881836
      ],
      [
        "▁소환",
        -10.598652839660645
      ],
      [
        "▁속",
        -8.194877624511719
      ],
      [
        "▁속도",
        -9.592015266418457
      ],
      [
        "▁속에",
        -9.757015228271484
      ],
      [
        "▁속에서",
        -9.686570167541504
      ],
      [
        "▁손",
        -8.037922859191895
      ],
      [
        "▁손님",
        -10.73784065246582
      ],
      [
        "▁손실",
        -10.22413444519043
      ],
      [
        "▁손연재",
        -10.948934555053711
      ],
      [
        "▁손을",
        -10.267853736877441
      ],
      [
        "▁손해배상",
        -10.832533836364746
      ],
      [
        "▁손흥민",
        -10.623021125793457
      ],
      [
        "▁솔로",
        -10.239434242248535
      ],
      [
        "▁솔루션",
        -10.432406425476074
      ],
      [
        "▁송",
        -8.47500228881836
      ],
      [
        "▁쇼",
        -10.346927642822266
      ],
      [
        "▁쇼핑",
        -10.296594619750977
      ],
      [
        "▁수",
        -5.721693515777588
      ],
      [
        "▁수급",
        -10.421585083007812
      ],
      [
        "▁수도",
        -9.211555480957031
      ],
      [
        "▁수도권",
        -9.87070083618164
      ],
      [
        "▁수립",
        -10.135052680969238
      ],
      [
        "▁수많은",
        -10.558331489562988
      ],
      [
        "▁수목드라마",
        -10.852149963378906
      ],
      [
        "▁수밖에",
        -9.593316078186035
      ],
      [
        "▁수비",
        -9.97884750366211
      ],
      [
        "▁수비수",
        -10.748537063598633
      ],
      [
        "▁수사",
        -8.849091529846191
      ],
      [
        "▁수사를",
        -10.270852088928223
      ],
      [
        "▁수상",
        -9.31032657623291
      ],
      [
        "▁수석",
        -10.007806777954102
      ],
      [
        "▁수석대표",
        -10.754026412963867
      ],
      [
        "▁수수료",
        -9.927772521972656
      ],
      [
        "▁수술",
        -9.806329727172852
      ],
      [
        "▁수십",
        -10.459038734436035
      ],
      [
        "▁수업",
        -10.433215141296387
      ],
      [
        "▁수영",
        -10.129910469055176
      ],
      [
        "▁수요",
        -9.457578659057617
      ],
      [
        "▁수요가",
        -10.36896800994873
      ],
      [
        "▁수용",
        -10.23194408416748
      ],
      [
        "▁수원",
        -9.428364753723145
      ],
      [
        "▁수익",
        -9.629940032958984
      ],
      [
        "▁수익률",
        -9.870317459106445
      ],
      [
        "▁수익성",
        -10.125382423400879
      ],
      [
        "▁수익을",
        -10.349322319030762
      ],
      [
        "▁수입",
        -9.210877418518066
      ],
      [
        "▁수정",
        -9.166672706604004
      ],
      [
        "▁수주",
        -9.871718406677246
      ],
      [
        "▁수준",
        -8.629328727722168
      ],
      [
        "▁수준으로",
        -10.181821823120117
      ],
      [
        "▁수준이다",
        -10.489691734313965
      ],
      [
        "▁수출",
        -8.746102333068848
      ],
      [
        "▁수치",
        -10.188222885131836
      ],
      [
        "▁수치다",
        -10.822819709777832
      ],
      [
        "▁수행",
        -9.683592796325684
      ],
      [
        "▁수혜",
        -10.567338943481445
      ],
      [
        "▁숙",
        -9.615621566772461
      ],
      [
        "▁순",
        -8.277955055236816
      ],
      [
        "▁순간",
        -9.745966911315918
      ],
      [
        "▁순매도",
        -10.241597175598145
      ],
      [
        "▁순매수",
        -10.167669296264648
      ],
      [
        "▁순위",
        -9.883661270141602
      ],
      [
        "▁순이익",
        -10.550836563110352
      ],
      [
        "▁술",
        -9.774932861328125
      ],
      [
        "▁숨",
        -9.118762969970703
      ],
      [
        "▁숨졌다",
        -10.99875259399414
      ],
      [
        "▁숨진",
        -10.041172981262207
      ],
      [
        "▁숫자",
        -10.887656211853027
      ],
      [
        "▁쉬",
        -9.923224449157715
      ],
      [
        "▁쉽게",
        -9.732766151428223
      ],
      [
        "▁쉽지",
        -9.956937789916992
      ],
      [
        "▁슈",
        -10.22140884399414
      ],
      [
        "▁슈팅",
        -10.406377792358398
      ],
      [
        "▁슈퍼",
        -10.320094108581543
      ],
      [
        "▁스",
        -8.022269248962402
      ],
      [
        "▁스노든",
        -10.395910263061523
      ],
      [
        "▁스마트",
        -9.558032035827637
      ],
      [
        "▁스마트폰",
        -8.769339561462402
      ],
      [
        "▁스몰캡",
        -10.229727745056152
      ],
      [
        "▁스스로",
        -9.487968444824219
      ],
      [
        "▁스위스",
        -10.996359825134277
      ],
      [
        "▁스케줄",
        -11.114060401916504
      ],
      [
        "▁스크린",
        -10.790854454040527
      ],
      [
        "▁스타",
        -9.039029121398926
      ],
      [
        "▁스타일",
        -9.657711029052734
      ],
      [
        "▁스태프",
        -10.621034622192383
      ],
      [
        "▁스토리",
        -10.134919166564941
      ],
      [
        "▁스트레스",
        -10.803956985473633
      ],
      [
        "▁스페셜올림픽",
        -11.01185417175293
      ],
      [
        "▁스페인",
        -10.085439682006836
      ],
      [
        "▁스포츠",
        -9.339995384216309
      ],
      [
        "▁스포츠조선닷컴",
        -10.749497413635254
      ],
      [
        "▁스피드",
        -10.636128425598145
      ],
      [
        "▁슬",
        -9.533526420593262
      ],
      [
        "▁승",
        -8.864027976989746
      ],
      [
        "▁승객",
        -10.243441581726074
      ],
      [
        "▁승리",
        -9.12524127960205
      ],
      [
        "▁승리를",
        -9.866429328918457
      ],
      [
        "▁승무원",
        -10.81596565246582
      ],
      [
        "▁승부",
        -9.778289794921875
      ],
      [
        "▁승부주",
        -10.499757766723633
      ],
      [
        "▁승용차",
        -10.6703462600708
      ],
      [
        "▁승인",
        -9.929048538208008
      ],
      [
        "▁승진",
        -10.487826347351074
      ],
      [
        "▁시",
        -7.093350887298584
      ],
      [
        "▁시가총액",
        -10.625776290893555
      ],
      [
        "▁시각",
        -9.80500602722168
      ],
      [
        "▁시간",
        -8.77723217010498
      ],
      [
        "▁시간을",
        -9.758173942565918
      ],
      [
        "▁시간이",
        -9.760724067687988
      ],
      [
        "▁시기",
        -9.645925521850586
      ],
      [
        "▁시나리오",
        -11.02439022064209
      ],
      [
        "▁시너지",
        -10.75931167602539
      ],
      [
        "▁시는",
        -10.2014799118042
      ],
      [
        "▁시달리",
        -11.048574447631836
      ],
      [
        "▁시대",
        -9.246926307678223
      ],
      [
        "▁시도",
        -9.44815444946289
      ],
      [
        "▁시리아",
        -10.895315170288086
      ],
      [
        "▁시리즈",
        -10.28278923034668
      ],
      [
        "▁시민",
        -9.275636672973633
      ],
      [
        "▁시민단체",
        -11.081019401550293
      ],
      [
        "▁시민들",
        -10.226332664489746
      ],
      [
        "▁시범",
        -10.447361946105957
      ],
      [
        "▁시사",
        -10.298624038696289
      ],
      [
        "▁시상식",
        -10.147501945495605
      ],
      [
        "▁시선을",
        -10.328812599182129
      ],
      [
        "▁시설",
        -9.346822738647461
      ],
      [
        "▁시스템",
        -9.316516876220703
      ],
      [
        "▁시스템을",
        -10.467916488647461
      ],
      [
        "▁시신",
        -10.090471267700195
      ],
      [
        "▁시위",
        -9.946493148803711
      ],
      [
        "▁시작",
        -8.31729507446289
      ],
      [
        "▁시작된",
        -10.3757963180542
      ],
      [
        "▁시작으로",
        -9.832496643066406
      ],
      [
        "▁시작한",
        -9.881370544433594
      ],
      [
        "▁시작했다",
        -9.682430267333984
      ],
      [
        "▁시장",
        -8.076651573181152
      ],
      [
        "▁시장에",
        -10.155790328979492
      ],
      [
        "▁시장에서",
        -9.755480766296387
      ],
      [
        "▁시장은",
        -10.163061141967773
      ],
      [
        "▁시장의",
        -9.999517440795898
      ],
      [
        "▁시절",
        -9.381150245666504
      ],
      [
        "▁시점",
        -9.909911155700684
      ],
      [
        "▁시즌",
        -8.144968032836914
      ],
      [
        "▁시청률",
        -9.4373197555542
      ],
      [
        "▁시청자",
        -10.577350616455078
      ],
      [
        "▁시청자들",
        -10.296761512756348
      ],
      [
        "▁시청자들의",
        -10.531657218933105
      ],
      [
        "▁시카고",
        -11.114184379577637
      ],
      [
        "▁시행",
        -8.931520462036133
      ],
      [
        "▁시험",
        -9.818689346313477
      ],
      [
        "▁식",
        -8.975142478942871
      ],
      [
        "▁식당",
        -10.63856029510498
      ],
      [
        "▁식사",
        -10.737305641174316
      ],
      [
        "▁식품",
        -10.16106128692627
      ],
      [
        "▁신",
        -7.106300354003906
      ],
      [
        "▁신경",
        -9.923956871032715
      ],
      [
        "▁신고",
        -9.07886028289795
      ],
      [
        "▁신곡",
        -10.283854484558105
      ],
      [
        "▁신규",
        -9.087895393371582
      ],
      [
        "▁신동엽",
        -11.176596641540527
      ],
      [
        "▁신뢰",
        -9.453490257263184
      ],
      [
        "▁신문",
        -9.748896598815918
      ],
      [
        "▁신분",
        -10.462027549743652
      ],
      [
        "▁신설",
        -9.597285270690918
      ],
      [
        "▁신세계",
        -10.598955154418945
      ],
      [
        "▁신속",
        -10.344208717346191
      ],
      [
        "▁신시내티",
        -10.298584938049316
      ],
      [
        "▁신용",
        -10.035510063171387
      ],
      [
        "▁신용등급",
        -10.975293159484863
      ],
      [
        "▁신용카드",
        -10.53146743774414
      ],
      [
        "▁신인",
        -10.068097114562988
      ],
      [
        "▁신임",
        -10.362067222595215
      ],
      [
        "▁신제품",
        -10.587289810180664
      ],
      [
        "▁신중",
        -10.436187744140625
      ],
      [
        "▁신청",
        -8.823269844055176
      ],
      [
        "▁신한금융투자",
        -11.164779663085938
      ],
      [
        "▁신한은행",
        -10.896605491638184
      ],
      [
        "▁신호",
        -10.603611946105957
      ],
      [
        "▁신화",
        -10.566932678222656
      ],
      [
        "▁신흥국",
        -11.162015914916992
      ],
      [
        "▁실",
        -8.079070091247559
      ],
      [
        "▁실내",
        -10.59423828125
      ],
      [
        "▁실력",
        -9.930859565734863
      ],
      [
        "▁실망",
        -10.694239616394043
      ],
      [
        "▁실무",
        -10.187911987304688
      ],
      [
        "▁실무회담",
        -10.173914909362793
      ],
      [
        "▁실수",
        -10.170578956604004
      ],
      [
        "▁실시",
        -8.80197525024414
      ],
      [
        "▁실시간",
        -9.912174224853516
      ],
      [
        "▁실시한",
        -10.554117202758789
      ],
      [
        "▁실시한다",
        -10.589893341064453
      ],
      [
        "▁실적",
        -8.524497985839844
      ],
      [
        "▁실적이",
        -10.322062492370605
      ],
      [
        "▁실제",
        -9.097664833068848
      ],
      [
        "▁실제로",
        -9.605931282043457
      ],
      [
        "▁실종",
        -9.563407897949219
      ],
      [
        "▁실질적인",
        -10.922977447509766
      ],
      [
        "▁실천",
        -10.023962020874023
      ],
      [
        "▁실태",
        -10.63432788848877
      ],
      [
        "▁실패",
        -9.556763648986816
      ],
      [
        "▁실행",
        -10.524698257446289
      ],
      [
        "▁실험",
        -10.532362937927246
      ],
      [
        "▁실현",
        -10.099995613098145
      ],
      [
        "▁싫어",
        -11.18270492553711
      ],
      [
        "▁심",
        -8.217493057250977
      ],
      [
        "▁심각",
        -10.488300323486328
      ],
      [
        "▁심각한",
        -10.272384643554688
      ],
      [
        "▁심경",
        -10.690980911254883
      ],
      [
        "▁심리",
        -10.1370267868042
      ],
      [
        "▁심사",
        -9.982892990112305
      ],
      [
        "▁심사위원",
        -10.764583587646484
      ],
      [
        "▁심지어",
        -11.051950454711914
      ],
      [
        "▁심판",
        -10.820097923278809
      ],
      [
        "▁심화",
        -10.732000350952148
      ],
      [
        "▁싱가포르",
        -10.836872100830078
      ],
      [
        "▁싱글",
        -10.457356452941895
      ],
      [
        "▁싶다",
        -9.215653419494629
      ],
      [
        "▁싶어",
        -10.254570960998535
      ],
      [
        "▁싶었",
        -10.40194034576416
      ],
      [
        "▁싶은",
        -9.979127883911133
      ],
      [
        "▁싸",
        -10.034496307373047
      ],
      [
        "▁싸이",
        -10.024068832397461
      ],
      [
        "▁쌍용차",
        -10.328164100646973
      ],
      [
        "▁쌓",
        -9.666502952575684
      ],
      [
        "▁써",
        -10.327974319458008
      ],
      [
        "▁써니",
        -10.831377029418945
      ],
      [
        "▁썼다",
        -10.781744003295898
      ],
      [
        "▁쏟아",
        -9.700407981872559
      ],
      [
        "▁쓰",
        -8.760891914367676
      ],
      [
        "▁쓰레기",
        -10.884428977966309
      ],
      [
        "▁쓴",
        -9.9500150680542
      ],
      [
        "▁쓸",
        -10.277132987976074
      ],
      [
        "▁씨",
        -9.169239044189453
      ],
      [
        "▁씨가",
        -10.297480583190918
      ],
      [
        "▁씨는",
        -9.690464973449707
      ],
      [
        "▁씨스타",
        -10.587004661560059
      ],
      [
        "▁씨엔블루",
        -11.12857723236084
      ],
      [
        "▁아",
        -7.444859027862549
      ],
      [
        "▁아끼",
        -10.733821868896484
      ],
      [
        "▁아나운서",
        -10.474040985107422
      ],
      [
        "▁아내",
        -9.640327453613281
      ],
      [
        "▁아니",
        -9.186120986938477
      ],
      [
        "▁아니냐",
        -10.620494842529297
      ],
      [
        "▁아니냐는",
        -10.227283477783203
      ],
      [
        "▁아니다",
        -8.948369026184082
      ],
      [
        "▁아니라",
        -8.21292495727539
      ],
      [
        "▁아니면",
        -10.82349967956543
      ],
      [
        "▁아니었다",
        -10.8262300491333
      ],
      [
        "▁아니지만",
        -11.022696495056152
      ],
      [
        "▁아닌",
        -8.76474666595459
      ],
      [
        "▁아동",
        -10.171339988708496
      ],
      [
        "▁아들",
        -9.236905097961426
      ],
      [
        "▁아래",
        -9.873032569885254
      ],
      [
        "▁아름",
        -10.398533821105957
      ],
      [
        "▁아름다운",
        -10.43567180633545
      ],
      [
        "▁아무",
        -9.43537425994873
      ],
      [
        "▁아버지",
        -9.478008270263672
      ],
      [
        "▁아베",
        -9.852371215820312
      ],
      [
        "▁아빠",
        -9.99998950958252
      ],
      [
        "▁아쉬움",
        -10.535143852233887
      ],
      [
        "▁아시아",
        -9.223670959472656
      ],
      [
        "▁아시아나",
        -10.405029296875
      ],
      [
        "▁아시아나항공",
        -10.507425308227539
      ],
      [
        "▁아예",
        -10.749079704284668
      ],
      [
        "▁아울러",
        -9.51246166229248
      ],
      [
        "▁아이",
        -8.618570327758789
      ],
      [
        "▁아이돌",
        -10.242188453674316
      ],
      [
        "▁아이들",
        -9.619046211242676
      ],
      [
        "▁아이디어",
        -10.386655807495117
      ],
      [
        "▁아이유",
        -10.620431900024414
      ],
      [
        "▁아이템",
        -10.527546882629395
      ],
      [
        "▁아이폰",
        -10.13563346862793
      ],
      [
        "▁아주",
        -10.349034309387207
      ],
      [
        "▁아직",
        -8.828184127807617
      ],
      [
        "▁아침",
        -9.81217098236084
      ],
      [
        "▁아파트",
        -8.99493408203125
      ],
      [
        "▁아픔",
        -11.113997459411621
      ],
      [
        "▁악",
        -9.022745132446289
      ],
      [
        "▁악화",
        -9.748064994812012
      ],
      [
        "▁안",
        -7.0753068923950195
      ],
      [
        "▁안내",
        -10.125624656677246
      ],
      [
        "▁안보",
        -10.053677558898926
      ],
      [
        "▁안에",
        -9.916023254394531
      ],
      [
        "▁안전",
        -8.66993522644043
      ],
      [
        "▁안정",
        -9.104440689086914
      ],
      [
        "▁안정적인",
        -10.48158073425293
      ],
      [
        "▁안타",
        -10.010475158691406
      ],
      [
        "▁안타를",
        -10.62006664276123
      ],
      [
        "▁안팎",
        -10.27513313293457
      ],
      [
        "▁앉아",
        -10.569764137268066
      ],
      [
        "▁않",
        -9.165148735046387
      ],
      [
        "▁않게",
        -10.684202194213867
      ],
      [
        "▁않겠다",
        -10.334990501403809
      ],
      [
        "▁않고",
        -8.497688293457031
      ],
      [
        "▁않기",
        -10.36296272277832
      ],
      [
        "▁않는",
        -8.884514808654785
      ],
      [
        "▁않는다",
        -9.019970893859863
      ],
      [
        "▁않다",
        -8.92776870727539
      ],
      [
        "▁않도록",
        -10.062187194824219
      ],
      [
        "▁않아",
        -9.075899124145508
      ],
      [
        "▁않았",
        -9.38178539276123
      ],
      [
        "▁않았다",
        -8.416264533996582
      ],
      [
        "▁않았던",
        -10.85330581665039
      ],
      [
        "▁않았지만",
        -10.695287704467773
      ],
      [
        "▁않으",
        -10.836695671081543
      ],
      [
        "▁않으면",
        -10.02597713470459
      ],
      [
        "▁않은",
        -8.409285545349121
      ],
      [
        "▁않을",
        -9.114941596984863
      ],
      [
        "▁않을까",
        -10.672151565551758
      ],
      [
        "▁않지만",
        -11.029695510864258
      ],
      [
        "▁알",
        -8.165724754333496
      ],
      [
        "▁알게",
        -10.45999526977539
      ],
      [
        "▁알고",
        -9.389158248901367
      ],
      [
        "▁알려",
        -9.42568588256836
      ],
      [
        "▁알려져",
        -10.329558372497559
      ],
      [
        "▁알려졌다",
        -8.553492546081543
      ],
      [
        "▁알려진",
        -10.174304962158203
      ],
      [
        "▁알렸다",
        -10.850302696228027
      ],
      [
        "▁알리",
        -10.023233413696289
      ],
      [
        "▁알아",
        -9.8541259765625
      ],
      [
        "▁알제리",
        -10.952123641967773
      ],
      [
        "▁암",
        -9.606470108032227
      ],
      [
        "▁압",
        -10.08531379699707
      ],
      [
        "▁압도적",
        -11.083660125732422
      ],
      [
        "▁압력",
        -11.000960350036621
      ],
      [
        "▁압류",
        -11.123390197753906
      ],
      [
        "▁압박",
        -10.150110244750977
      ],
      [
        "▁압수수색",
        -10.306842803955078
      ],
      [
        "▁앞",
        -8.992609024047852
      ],
      [
        "▁앞두고",
        -9.137349128723145
      ],
      [
        "▁앞둔",
        -10.325544357299805
      ],
      [
        "▁앞서",
        -8.348130226135254
      ],
      [
        "▁앞선",
        -10.430144309997559
      ],
      [
        "▁앞세워",
        -10.697257995605469
      ],
      [
        "▁앞에",
        -10.189607620239258
      ],
      [
        "▁앞에서",
        -9.955216407775879
      ],
      [
        "▁앞으로",
        -8.772754669189453
      ],
      [
        "▁앞장서",
        -11.17910385131836
      ],
      [
        "▁애",
        -8.689848899841309
      ],
      [
        "▁애널리스트",
        -10.743589401245117
      ],
      [
        "▁애니메이션",
        -11.048347473144531
      ],
      [
        "▁애리조나",
        -10.629302978515625
      ],
      [
        "▁애정",
        -10.426644325256348
      ],
      [
        "▁애초",
        -10.856189727783203
      ],
      [
        "▁애플",
        -9.387256622314453
      ],
      [
        "▁애플리케이션",
        -10.919774055480957
      ],
      [
        "▁액션",
        -10.227269172668457
      ],
      [
        "▁앤",
        -10.255393028259277
      ],
      [
        "▁앨범",
        -9.504679679870605
      ],
      [
        "▁앱",
        -9.652140617370605
      ],
      [
        "▁야",
        -9.11075496673584
      ],
      [
        "▁야간",
        -10.775429725646973
      ],
      [
        "▁야구",
        -9.311798095703125
      ],
      [
        "▁야당",
        -9.97778034210205
      ],
      [
        "▁야외",
        -10.892179489135742
      ],
      [
        "▁약",
        -8.05174446105957
      ],
      [
        "▁약세",
        -9.951698303222656
      ],
      [
        "▁약속",
        -9.387907981872559
      ],
      [
        "▁양",
        -7.7372894287109375
      ],
      [
        "▁양국",
        -10.271648406982422
      ],
      [
        "▁양성",
        -10.150796890258789
      ],
      [
        "▁양적완화",
        -10.251871109008789
      ],
      [
        "▁양측",
        -10.276092529296875
      ],
      [
        "▁얘기",
        -9.156926155090332
      ],
      [
        "▁어",
        -8.021978378295898
      ],
      [
        "▁어깨",
        -10.428750038146973
      ],
      [
        "▁어느",
        -9.29481029510498
      ],
      [
        "▁어디",
        -9.479512214660645
      ],
      [
        "▁어떤",
        -8.88707447052002
      ],
      [
        "▁어떻게",
        -9.034311294555664
      ],
      [
        "▁어려운",
        -9.462474822998047
      ],
      [
        "▁어려울",
        -10.603570938110352
      ],
      [
        "▁어려움",
        -10.506007194519043
      ],
      [
        "▁어려움을",
        -10.198534965515137
      ],
      [
        "▁어려워",
        -10.488618850708008
      ],
      [
        "▁어렵",
        -10.112150192260742
      ],
      [
        "▁어렵다",
        -9.666751861572266
      ],
      [
        "▁어린",
        -10.034406661987305
      ],
      [
        "▁어린이",
        -9.659783363342285
      ],
      [
        "▁어린이집",
        -10.864592552185059
      ],
      [
        "▁어머니",
        -9.796639442443848
      ],
      [
        "▁어울리",
        -10.926234245300293
      ],
      [
        "▁어제",
        -10.365130424499512
      ],
      [
        "▁억울",
        -11.106877326965332
      ],
      [
        "▁억제",
        -11.164386749267578
      ],
      [
        "▁언",
        -9.751368522644043
      ],
      [
        "▁언급",
        -9.38448715209961
      ],
      [
        "▁언급했다",
        -10.658708572387695
      ],
      [
        "▁언론",
        -8.909273147583008
      ],
      [
        "▁언제",
        -9.902069091796875
      ],
      [
        "▁얻고",
        -10.624350547790527
      ],
      [
        "▁얻어",
        -10.468708038330078
      ],
      [
        "▁얻었다",
        -10.709724426269531
      ],
      [
        "▁얻은",
        -10.72722339630127
      ],
      [
        "▁얻을",
        -10.84704303741455
      ],
      [
        "▁얼굴",
        -9.290690422058105
      ],
      [
        "▁얼마",
        -10.319090843200684
      ],
      [
        "▁얼마나",
        -9.914131164550781
      ],
      [
        "▁얼음",
        -10.977277755737305
      ],
      [
        "▁엄",
        -9.368196487426758
      ],
      [
        "▁엄격",
        -10.982382774353027
      ],
      [
        "▁엄마",
        -9.93028450012207
      ],
      [
        "▁엄청난",
        -10.851791381835938
      ],
      [
        "▁엄태웅",
        -10.615175247192383
      ],
      [
        "▁업",
        -10.125582695007324
      ],
      [
        "▁업계",
        -9.261506080627441
      ],
      [
        "▁업그레이드",
        -10.936380386352539
      ],
      [
        "▁업데이트",
        -10.734954833984375
      ],
      [
        "▁업무",
        -9.054422378540039
      ],
      [
        "▁업무를",
        -10.237154006958008
      ],
      [
        "▁업무보고",
        -9.869366645812988
      ],
      [
        "▁업종",
        -9.619810104370117
      ],
      [
        "▁업체",
        -8.940656661987305
      ],
      [
        "▁업체들",
        -10.601446151733398
      ],
      [
        "▁없",
        -8.698958396911621
      ],
      [
        "▁없고",
        -10.138623237609863
      ],
      [
        "▁없는",
        -8.089361190795898
      ],
      [
        "▁없다",
        -7.923573970794678
      ],
      [
        "▁없다고",
        -10.107765197753906
      ],
      [
        "▁없다는",
        -9.718904495239258
      ],
      [
        "▁없도록",
        -10.854516983032227
      ],
      [
        "▁없애",
        -10.715574264526367
      ],
      [
        "▁없어",
        -9.176010131835938
      ],
      [
        "▁없었",
        -10.386759757995605
      ],
      [
        "▁없었다",
        -9.190288543701172
      ],
      [
        "▁없었던",
        -10.702766418457031
      ],
      [
        "▁없을",
        -9.869789123535156
      ],
      [
        "▁없이",
        -8.636958122253418
      ],
      [
        "▁없지만",
        -10.781578063964844
      ],
      [
        "▁에너지",
        -9.481252670288086
      ],
      [
        "▁에릭",
        -10.987446784973145
      ],
      [
        "▁에스",
        -10.457714080810547
      ],
      [
        "▁에어컨",
        -11.078866004943848
      ],
      [
        "▁에이",
        -10.335565567016602
      ],
      [
        "▁에이스",
        -10.74207592010498
      ],
      [
        "▁에피소드",
        -11.03651237487793
      ],
      [
        "▁엔",
        -9.543281555175781
      ],
      [
        "▁엔진",
        -10.48486042022705
      ],
      [
        "▁엔화",
        -10.246684074401855
      ],
      [
        "▁엘",
        -9.892388343811035
      ],
      [
        "▁엠",
        -10.224922180175781
      ],
      [
        "▁엠넷",
        -11.053667068481445
      ],
      [
        "▁여",
        -7.927227020263672
      ],
      [
        "▁여객기",
        -10.539423942565918
      ],
      [
        "▁여건",
        -10.536642074584961
      ],
      [
        "▁여기",
        -9.880505561828613
      ],
      [
        "▁여기에",
[...]
